{
  "version": "1.0",
  "truncation": null,
  "padding": null,
  "added_tokens": [],
  "normalizer": null,
  "pre_tokenizer": {
    "type": "Whitespace"
  },
  "post_processor": null,
  "decoder": null,
  "model": {
    "type": "BPE",
    "dropout": null,
    "unk_token": null,
    "continuing_subword_prefix": null,
    "end_of_word_suffix": null,
    "fuse_unk": false,
    "byte_fallback": false,
    "ignore_merges": false,
    "vocab": {
      "a": 0,
      "b": 1,
      "c": 2,
      "d": 3,
      "e": 4,
      "f": 5,
      "g": 6,
      "h": 7,
      "i": 8,
      "j": 9,
      "k": 10,
      "l": 11,
      "m": 12,
      "n": 13,
      "o": 14,
      "p": 15,
      "q": 16,
      "r": 17,
      "s": 18,
      "t": 19,
      "u": 20,
      "v": 21,
      "w": 22,
      "x": 23,
      "y": 24,
      "z": 25,
      "th": 26,
      "in": 27,
      "er": 28,
      "on": 29,
      "an": 30,
      "the": 31,
      "re": 32,
      "en": 33,
      "at": 34,
      "al": 35,
      "is": 36,
      "or": 37,
      "ed": 38,
      "of": 39,
      "es": 40,
      "ar": 41,
      "as": 42,
      "and": 43,
      "ic": 44,
      "it": 45,
      "ou": 46,
      "one": 47,
      "to": 48,
      "ion": 49,
      "ing": 50,
      "st": 51,
      "se": 52,
      "le": 53,
      "ro": 54,
      "ch": 55,
      "ine": 56,
      "ve": 57,
      "ent": 58,
      "ig": 59,
      "ero": 60,
      "zero": 61,
      "om": 62,
      "nine": 63,
      "am": 64,
      "ly": 65,
      "de": 66,
      "ct": 67,
      "be": 68,
      "il": 69,
      "tw": 70,
      "ol": 71,
      "si": 72,
      "for": 73,
      "two": 74,
      "igh": 75,
      "ce": 76,
      "un": 77,
      "fi": 78,
      "ad": 79,
      "ter": 80,
      "ation": 81,
      "us": 82,
      "im": 83,
      "ight": 84,
      "ver": 85,
      "con": 86,
      "wh": 87,
      "ur": 88,
      "our": 89,
      "ow": 90,
      "ra": 91,
      "ree": 92,
      "mo": 93,
      "ul": 94,
      "ag": 95,
      "ist": 96,
      "eight": 97,
      "com": 98,
      "ven": 99,
      "el": 100,
      "wi": 101,
      "by": 102,
      "are": 103,
      "ther": 104,
      "ma": 105,
      "op": 106,
      "la": 107,
      "ot": 108,
      "was": 109,
      "five": 110,
      "ri": 111,
      "three": 112,
      "ut": 113,
      "pro": 114,
      "ex": 115,
      "su": 116,
      "em": 117,
      "ab": 118,
      "four": 119,
      "that": 120,
      "pe": 121,
      "with": 122,
      "ir": 123,
      "six": 124,
      "li": 125,
      "di": 126,
      "seven": 127,
      "he": 128,
      "man": 129,
      "ne": 130,
      "res": 131,
      "ap": 132,
      "all": 133,
      "ci": 134,
      "ers": 135,
      "so": 136,
      "est": 137,
      "et": 138,
      "oun": 139,
      "ac": 140,
      "art": 141,
      "rom": 142,
      "ate": 143,
      "um": 144,
      "lo": 145,
      "ity": 146,
      "qu": 147,
      "po": 148,
      "vi": 149,
      "from": 150,
      "ant": 151,
      "sh": 152,
      "der": 153,
      "ph": 154,
      "ich": 155,
      "ish": 156,
      "ment": 157,
      "per": 158,
      "ical": 159,
      "ay": 160,
      "ge": 161,
      "ess": 162,
      "his": 163,
      "ere": 164,
      "cl": 165,
      "act": 166,
      "co": 167,
      "not": 168,
      "te": 169,
      "ies": 170,
      "this": 171,
      "ian": 172,
      "ha": 173,
      "od": 174,
      "du": 175,
      "ber": 176,
      "wor": 177,
      "au": 178,
      "tr": 179,
      "ke": 180,
      "ill": 181,
      "fe": 182,
      "which": 183,
      "ain": 184,
      "ort": 185,
      "ld": 186,
      "gh": 187,
      "ard": 188,
      "bo": 189,
      "id": 190,
      "end": 191,
      "ated": 192,
      "ary": 193,
      "ally": 194,
      "ame": 195,
      "ear": 196,
      "sp": 197,
      "out": 198,
      "other": 199,
      "form": 200,
      "ive": 201,
      "gr": 202,
      "ia": 203,
      "ure": 204,
      "but": 205,
      "ous": 206,
      "comp": 207,
      "age": 208,
      "me": 209,
      "ast": 210,
      "also": 211,
      "af": 212,
      "rit": 213,
      "pt": 214,
      "ions": 215,
      "can": 216,
      "ough": 217,
      "gu": 218,
      "ome": 219,
      "fic": 220,
      "pl": 221,
      "pre": 222,
      "str": 223,
      "go": 224,
      "part": 225,
      "fer": 226,
      "its": 227,
      "pla": 228,
      "sy": 229,
      "cont": 230,
      "ong": 231,
      "have": 232,
      "ud": 233,
      "ks": 234,
      "has": 235,
      "int": 236,
      "og": 237,
      "ence": 238,
      "were": 239,
      "no": 240,
      "land": 241,
      "ser": 242,
      "ound": 243,
      "mon": 244,
      "mar": 245,
      "pr": 246,
      "bl": 247,
      "cent": 248,
      "ory": 249,
      "own": 250,
      "port": 251,
      "ans": 252,
      "ult": 253,
      "ass": 254,
      "ip": 255,
      "ations": 256,
      "king": 257,
      "gen": 258,
      "inter": 259,
      "dis": 260,
      "col": 261,
      "fo": 262,
      "ell": 263,
      "ction": 264,
      "ck": 265,
      "some": 266,
      "ign": 267,
      "des": 268,
      "iz": 269,
      "ren": 270,
      "new": 271,
      "pos": 272,
      "most": 273,
      "fir": 274,
      "ition": 275,
      "ach": 276,
      "cre": 277,
      "cor": 278,
      "iv": 279,
      "tim": 280,
      "their": 281,
      "ould": 282,
      "ial": 283,
      "min": 284,
      "ces": 285,
      "do": 286,
      "pres": 287,
      "eng": 288,
      "able": 289,
      "had": 290,
      "who": 291,
      "att": 292,
      "br": 293,
      "ates": 294,
      "red": 295,
      "coun": 296,
      "first": 297,
      "up": 298,
      "je": 299,
      "many": 300,
      "ten": 301,
      "they": 302,
      "eric": 303,
      "low": 304,
      "we": 305,
      "vers": 306,
      "more": 307,
      "vel": 308,
      "used": 309,
      "ance": 310,
      "fin": 311,
      "ite": 312,
      "av": 313,
      "ism": 314,
      "ater": 315,
      "ak": 316,
      "spe": 317,
      "there": 318,
      "ced": 319,
      "americ": 320,
      "ang": 321,
      "pol": 322,
      "ever": 323,
      "jo": 324,
      "comm": 325,
      "ble": 326,
      "ics": 327,
      "been": 328,
      "ele": 329,
      "kn": 330,
      "year": 331,
      "fl": 332,
      "ty": 333,
      "such": 334,
      "rel": 335,
      "ry": 336,
      "if": 337,
      "nor": 338,
      "ger": 339,
      "ice": 340,
      "pu": 341,
      "ev": 342,
      "lin": 343,
      "car": 344,
      "ple": 345,
      "fr": 346,
      "over": 347,
      "ts": 348,
      "war": 349,
      "tern": 350,
      "ational": 351,
      "after": 352,
      "ited": 353,
      "par": 354,
      "bas": 355,
      "os": 356,
      "incl": 357,
      "play": 358,
      "cess": 359,
      "fa": 360,
      "her": 361,
      "how": 362,
      "reg": 363,
      "ular": 364,
      "ef": 365,
      "cur": 366,
      "see": 367,
      "ari": 368,
      "ile": 369,
      "ath": 370,
      "into": 371,
      "time": 372,
      "way": 373,
      "may": 374,
      "use": 375,
      "ds": 376,
      "tra": 377,
      "oc": 378,
      "olog": 379,
      "ors": 380,
      "sc": 381,
      "ta": 382,
      "hist": 383,
      "day": 384,
      "when": 385,
      "publ": 386,
      "bec": 387,
      "american": 388,
      "than": 389,
      "med": 390,
      "cy": 391,
      "stem": 392,
      "ok": 393,
      "ric": 394,
      "uni": 395,
      "them": 396,
      "world": 397,
      "ents": 398,
      "these": 399,
      "ding": 400,
      "sel": 401,
      "any": 402,
      "char": 403,
      "system": 404,
      "lar": 405,
      "only": 406,
      "les": 407,
      "gre": 408,
      "though": 409,
      "under": 410,
      "pop": 411,
      "ative": 412,
      "mil": 413,
      "een": 414,
      "sub": 415,
      "num": 416,
      "gener": 417,
      "ved": 418,
      "lish": 419,
      "vis": 420,
      "fore": 421,
      "ack": 422,
      "lan": 423,
      "ue": 424,
      "call": 425,
      "national": 426,
      "arch": 427,
      "ict": 428,
      "ust": 429,
      "ins": 430,
      "uring": 431,
      "soci": 432,
      "would": 433,
      "sch": 434,
      "ase": 435,
      "ire": 436,
      "ob": 437,
      "old": 438,
      "mus": 439,
      "produ": 440,
      "cal": 441,
      "dif": 442,
      "high": 443,
      "ms": 444,
      "eu": 445,
      "cted": 446,
      "ful": 447,
      "ext": 448,
      "ens": 449,
      "bor": 450,
      "als": 451,
      "ca": 452,
      "row": 453,
      "led": 454,
      "cr": 455,
      "ps": 456,
      "my": 457,
      "gover": 458,
      "tri": 459,
      "writ": 460,
      "gan": 461,
      "however": 462,
      "ists": 463,
      "tween": 464,
      "between": 465,
      "peop": 466,
      "mem": 467,
      "about": 468,
      "known": 469,
      "air": 470,
      "bi": 471,
      "ann": 472,
      "ys": 473,
      "cer": 474,
      "thr": 475,
      "states": 476,
      "where": 477,
      "includ": 478,
      "him": 479,
      "ind": 480,
      "vol": 481,
      "main": 482,
      "ject": 483,
      "sa": 484,
      "ters": 485,
      "ale": 486,
      "bu": 487,
      "ually": 488,
      "leg": 489,
      "years": 490,
      "fil": 491,
      "ft": 492,
      "set": 493,
      "hu": 494,
      "people": 495,
      "ste": 496,
      "ince": 497,
      "ating": 498,
      "united": 499,
      "during": 500,
      "langu": 501,
      "ving": 502,
      "ities": 503,
      "fol": 504,
      "val": 505,
      "ution": 506,
      "then": 507,
      "called": 508,
      "chr": 509,
      "well": 510,
      "like": 511,
      "sup": 512,
      "work": 513,
      "ings": 514,
      "sou": 515,
      "ll": 516,
      "tur": 517,
      "cap": 518,
      "govern": 519,
      "ual": 520,
      "ted": 521,
      "ded": 522,
      "ital": 523,
      "cept": 524,
      "public": 525,
      "ru": 526,
      "sm": 527,
      "raph": 528,
      "will": 529,
      "trans": 530,
      "dom": 531,
      "ho": 532,
      "brit": 533,
      "ide": 534,
      "state": 535,
      "son": 536,
      "through": 537,
      "univers": 538,
      "grou": 539,
      "sing": 540,
      "sion": 541,
      "speci": 542,
      "ury": 543,
      "pow": 544,
      "indi": 545,
      "city": 546,
      "fam": 547,
      "exam": 548,
      "dist": 549,
      "vie": 550,
      "cond": 551,
      "ie": 552,
      "ages": 553,
      "ton": 554,
      "stru": 555,
      "tain": 556,
      "often": 557,
      "ii": 558,
      "ause": 559,
      "ward": 560,
      "hy": 561,
      "cle": 562,
      "while": 563,
      "eld": 564,
      "ames": 565,
      "law": 566,
      "ves": 567,
      "government": 568,
      "dep": 569,
      "history": 570,
      "sci": 571,
      "mis": 572,
      "long": 573,
      "differ": 574,
      "point": 575,
      "velop": 576,
      "ose": 577,
      "sid": 578,
      "ically": 579,
      "euro": 580,
      "ures": 581,
      "fun": 582,
      "develop": 583,
      "ship": 584,
      "vari": 585,
      "found": 586,
      "sol": 587,
      "orig": 588,
      "elect": 589,
      "common": 590,
      "refer": 591,
      "polit": 592,
      "stand": 593,
      "follow": 594,
      "sur": 595,
      "again": 596,
      "met": 597,
      "ze": 598,
      "offic": 599,
      "number": 600,
      "made": 601,
      "mu": 602,
      "english": 603,
      "ology": 604,
      "being": 605,
      "ace": 606,
      "both": 607,
      "right": 608,
      "pers": 609,
      "hn": 610,
      "ature": 611,
      "serv": 612,
      "ss": 613,
      "self": 614,
      "jor": 615,
      "line": 616,
      "requ": 617,
      "ick": 618,
      "har": 619,
      "lit": 620,
      "pri": 621,
      "very": 622,
      "dire": 623,
      "ep": 624,
      "gram": 625,
      "commun": 626,
      "present": 627,
      "ments": 628,
      "name": 629,
      "emp": 630,
      "europe": 631,
      "later": 632,
      "fact": 633,
      "da": 634,
      "ning": 635,
      "pa": 636,
      "ise": 637,
      "mer": 638,
      "gi": 639,
      "bro": 640,
      "fect": 641,
      "bers": 642,
      "origin": 643,
      "vent": 644,
      "less": 645,
      "ese": 646,
      "ons": 647,
      "peri": 648,
      "ural": 649,
      "sive": 650,
      "christ": 651,
      "mi": 652,
      "bar": 653,
      "sign": 654,
      "she": 655,
      "life": 656,
      "cla": 657,
      "na": 658,
      "sever": 659,
      "bre": 660,
      "oper": 661,
      "john": 662,
      "cour": 663,
      "since": 664,
      "lead": 665,
      "century": 666,
      "power": 667,
      "add": 668,
      "let": 669,
      "ond": 670,
      "mat": 671,
      "gy": 672,
      "view": 673,
      "ban": 674,
      "ude": 675,
      "music": 676,
      "ball": 677,
      "because": 678,
      "mark": 679,
      "contro": 680,
      "stit": 681,
      "come": 682,
      "university": 683,
      "great": 684,
      "early": 685,
      "conom": 686,
      "list": 687,
      "contin": 688,
      "econom": 689,
      "partic": 690,
      "sider": 691,
      "ress": 692,
      "major": 693,
      "even": 694,
      "british": 695,
      "urch": 696,
      "ract": 697,
      "large": 698,
      "tre": 699,
      "what": 700,
      "ily": 701,
      "unt": 702,
      "ized": 703,
      "ific": 704,
      "consider": 705,
      "read": 706,
      "bur": 707,
      "equ": 708,
      "appe": 709,
      "ians": 710,
      "organ": 711,
      "same": 712,
      "ild": 713,
      "cri": 714,
      "ility": 715,
      "ange": 716,
      "sk": 717,
      "hol": 718,
      "now": 719,
      "cam": 720,
      "charact": 721,
      "including": 722,
      "back": 723,
      "tech": 724,
      "became": 725,
      "example": 726,
      "colle": 727,
      "each": 728,
      "try": 729,
      "phil": 730,
      "trad": 731,
      "comple": 732,
      "german": 733,
      "god": 734,
      "ants": 735,
      "exp": 736,
      "clo": 737,
      "side": 738,
      "language": 739,
      "off": 740,
      "del": 741,
      "cas": 742,
      "ulation": 743,
      "human": 744,
      "death": 745,
      "moder": 746,
      "general": 747,
      "ba": 748,
      "although": 749,
      "island": 750,
      "ences": 751,
      "depend": 752,
      "suc": 753,
      "different": 754,
      "several": 755,
      "import": 756,
      "turn": 757,
      "second": 758,
      "presid": 759,
      "tal": 760,
      "class": 761,
      "mal": 762,
      "rench": 763,
      "vil": 764,
      "cult": 765,
      "techn": 766,
      "ork": 767,
      "non": 768,
      "ga": 769,
      "nam": 770,
      "ib": 771,
      "stri": 772,
      "cus": 773,
      "dr": 774,
      "den": 775,
      "order": 776,
      "chin": 777,
      "program": 778,
      "beli": 779,
      "small": 780,
      "io": 781,
      "much": 782,
      "men": 783,
      "french": 784,
      "gree": 785,
      "design": 786,
      "before": 787,
      "result": 788,
      "ars": 789,
      "south": 790,
      "ious": 791,
      "book": 792,
      "roman": 793,
      "put": 794,
      "north": 795,
      "lim": 796,
      "church": 797,
      "modern": 798,
      "app": 799,
      "direct": 800,
      "ner": 801,
      "could": 802,
      "lat": 803,
      "gest": 804,
      "ional": 805,
      "against": 806,
      "links": 807,
      "pon": 808,
      "ternal": 809,
      "person": 810,
      "ting": 811,
      "ord": 812,
      "curren": 813,
      "ham": 814,
      "group": 815,
      "based": 816,
      "ore": 817,
      "term": 818,
      "hand": 819,
      "ouse": 820,
      "those": 821,
      "sim": 822,
      "prim": 823,
      "rad": 824,
      "mag": 825,
      "press": 826,
      "flu": 827,
      "thor": 828,
      "bra": 829,
      "ished": 830,
      "top": 831,
      "fran": 832,
      "pat": 833,
      "mic": 834,
      "light": 835,
      "film": 836,
      "west": 837,
      "recor": 838,
      "tic": 839,
      "show": 840,
      "vir": 841,
      "ety": 842,
      "president": 843,
      "get": 844,
      "mor": 845,
      "another": 846,
      "external": 847,
      "popular": 848,
      "just": 849,
      "game": 850,
      "que": 851,
      "sw": 852,
      "lu": 853,
      "formation": 854,
      "head": 855,
      "omet": 856,
      "ah": 857,
      "ith": 858,
      "rus": 859,
      "liam": 860,
      "stat": 861,
      "free": 862,
      "country": 863,
      "buil": 864,
      "bel": 865,
      "indu": 866,
      "claim": 867,
      "mas": 868,
      "using": 869,
      "series": 870,
      "compu": 871,
      "eas": 872,
      "bal": 873,
      "ool": 874,
      "you": 875,
      "run": 876,
      "hel": 877,
      "az": 878,
      "place": 879,
      "allow": 880,
      "still": 881,
      "ral": 882,
      "support": 883,
      "nat": 884,
      "process": 885,
      "vid": 886,
      "bs": 887,
      "dra": 888,
      "ator": 889,
      "vision": 890,
      "down": 891,
      "cons": 892,
      "ared": 893,
      "mill": 894,
      "did": 895,
      "international": 896,
      "milit": 897,
      "until": 898,
      "effect": 899,
      "tle": 900,
      "cro": 901,
      "tit": 902,
      "real": 903,
      "mid": 904,
      "lack": 905,
      "bir": 906,
      "cra": 907,
      "sible": 908,
      "ash": 909,
      "bri": 910,
      "success": 911,
      "bus": 912,
      "test": 913,
      "atic": 914,
      "descri": 915,
      "open": 916,
      "ref": 917,
      "ased": 918,
      "wn": 919,
      "ley": 920,
      "appro": 921,
      "defin": 922,
      "ives": 923,
      "ograph": 924,
      "struct": 925,
      "histor": 926,
      "sen": 927,
      "sum": 928,
      "cover": 929,
      "incre": 930,
      "ribut": 931,
      "artic": 932,
      "position": 933,
      "school": 934,
      "rele": 935,
      "ended": 936,
      "usually": 937,
      "control": 938,
      "ec": 939,
      "win": 940,
      "ox": 941,
      "party": 942,
      "move": 943,
      "house": 944,
      "thod": 945,
      "political": 946,
      "character": 947,
      "bin": 948,
      "pass": 949,
      "far": 950,
      "stud": 951,
      "key": 952,
      "crit": 953,
      "jew": 954,
      "relig": 955,
      "fied": 956,
      "last": 957,
      "gra": 958,
      "imes": 959,
      "loc": 960,
      "ium": 961,
      "ization": 962,
      "bert": 963,
      "author": 964,
      "among": 965,
      "ness": 966,
      "typ": 967,
      "uary": 968,
      "mber": 969,
      "ling": 970,
      "ister": 971,
      "emper": 972,
      "word": 973,
      "tro": 974,
      "wil": 975,
      "ata": 976,
      "provi": 977,
      "area": 978,
      "simil": 979,
      "water": 980,
      "ron": 981,
      "around": 982,
      "gin": 983,
      "ason": 984,
      "wa": 985,
      "theory": 986,
      "wes": 987,
      "mot": 988,
      "child": 989,
      "near": 990,
      "continu": 991,
      "cts": 992,
      "thern": 993,
      "posed": 994,
      "left": 995,
      "ices": 996,
      "sour": 997,
      "every": 998,
      "ways": 999,
      "plic": 1000,
      "include": 1001,
      "mb": 1002,
      "period": 1003,
      "fur": 1004,
      "ths": 1005,
      "hal": 1006,
      "pi": 1007,
      "plan": 1008,
      "current": 1009,
      "members": 1010,
      "ories": 1011,
      "population": 1012,
      "similar": 1013,
      "ped": 1014,
      "military": 1015,
      "mean": 1016,
      "tradition": 1017,
      "mit": 1018,
      "ired": 1019,
      "inv": 1020,
      "field": 1021,
      "jap": 1022,
      "itions": 1023,
      "cu": 1024,
      "net": 1025,
      "short": 1026,
      "east": 1027,
      "batt": 1028,
      "particular": 1029,
      "ency": 1030,
      "ody": 1031,
      "following": 1032,
      "prof": 1033,
      "sof": 1034,
      "thing": 1035,
      "japan": 1036,
      "dan": 1037,
      "gar": 1038,
      "gn": 1039,
      "por": 1040,
      "within": 1041,
      "due": 1042,
      "phys": 1043,
      "adv": 1044,
      "ler": 1045,
      "cul": 1046,
      "canad": 1047,
      "bed": 1048,
      "pract": 1049,
      "search": 1050,
      "dy": 1051,
      "ute": 1052,
      "ably": 1053,
      "imate": 1054,
      "cir": 1055,
      "def": 1056,
      "ben": 1057,
      "influ": 1058,
      "home": 1059,
      "important": 1060,
      "sto": 1061,
      "vo": 1062,
      "wal": 1063,
      "empt": 1064,
      "band": 1065,
      "computer": 1066,
      "start": 1067,
      "inci": 1068,
      "cum": 1069,
      "christian": 1070,
      "family": 1071,
      "considered": 1072,
      "exist": 1073,
      "cing": 1074,
      "bc": 1075,
      "somet": 1076,
      "sequ": 1077,
      "ones": 1078,
      "jan": 1079,
      "tele": 1080,
      "cop": 1081,
      "roy": 1082,
      "ently": 1083,
      "accor": 1084,
      "information": 1085,
      "osop": 1086,
      "pur": 1087,
      "pal": 1088,
      "wide": 1089,
      "ken": 1090,
      "ju": 1091,
      "cis": 1092,
      "official": 1093,
      "afric": 1094,
      "european": 1095,
      "philosop": 1096,
      "anim": 1097,
      "space": 1098,
      "social": 1099,
      "graph": 1100,
      "case": 1101,
      "standard": 1102,
      "estab": 1103,
      "independ": 1104,
      "make": 1105,
      "sometimes": 1106,
      "contain": 1107,
      "jud": 1108,
      "bn": 1109,
      "force": 1110,
      "associ": 1111,
      "does": 1112,
      "civil": 1113,
      "born": 1114,
      "given": 1115,
      "chang": 1116,
      "establish": 1117,
      "times": 1118,
      "ade": 1119,
      "und": 1120,
      "stu": 1121,
      "bit": 1122,
      "represent": 1123,
      "without": 1124,
      "western": 1125,
      "fri": 1126,
      "proble": 1127,
      "ail": 1128,
      "uk": 1129,
      "team": 1130,
      "anci": 1131,
      "thus": 1132,
      "ris": 1133,
      "hor": 1134,
      "anti": 1135,
      "ats": 1136,
      "science": 1137,
      "thir": 1138,
      "ster": 1139,
      "austr": 1140,
      "ability": 1141,
      "russi": 1142,
      "union": 1143,
      "ring": 1144,
      "eth": 1145,
      "systems": 1146,
      "remain": 1147,
      "tak": 1148,
      "good": 1149,
      "central": 1150,
      "york": 1151,
      "boo": 1152,
      "few": 1153,
      "tries": 1154,
      "level": 1155,
      "wom": 1156,
      "rul": 1157,
      "version": 1158,
      "sport": 1159,
      "austral": 1160,
      "know": 1161,
      "rich": 1162,
      "cell": 1163,
      "black": 1164,
      "ither": 1165,
      "pen": 1166,
      "respon": 1167,
      "une": 1168,
      "gl": 1169,
      "ived": 1170,
      "uc": 1171,
      "issu": 1172,
      "viet": 1173,
      "republic": 1174,
      "addition": 1175,
      "former": 1176,
      "various": 1177,
      "sal": 1178,
      "town": 1179,
      "fre": 1180,
      "earth": 1181,
      "bon": 1182,
      "rest": 1183,
      "uses": 1184,
      "become": 1185,
      "demo": 1186,
      "should": 1187,
      "log": 1188,
      "player": 1189,
      "isbn": 1190,
      "countries": 1191,
      "must": 1192,
      "lam": 1193,
      "ka": 1194,
      "ined": 1195,
      "dam": 1196,
      "change": 1197,
      "mult": 1198,
      "cast": 1199,
      "ctive": 1200,
      "foot": 1201,
      "others": 1202,
      "body": 1203,
      "formed": 1204,
      "according": 1205,
      "article": 1206,
      "ae": 1207,
      "ples": 1208,
      "proper": 1209,
      "written": 1210,
      "fed": 1211,
      "ker": 1212,
      "original": 1213,
      "don": 1214,
      "ctions": 1215,
      "rece": 1216,
      "chem": 1217,
      "wo": 1218,
      "languages": 1219,
      "prote": 1220,
      "che": 1221,
      "intro": 1222,
      "treat": 1223,
      "liber": 1224,
      "best": 1225,
      "object": 1226,
      "ned": 1227,
      "kill": 1228,
      "never": 1229,
      "ford": 1230,
      "song": 1231,
      "forms": 1232,
      "began": 1233,
      "grow": 1234,
      "ming": 1235,
      "constit": 1236,
      "certain": 1237,
      "generally": 1238,
      "star": 1239,
      "need": 1240,
      "works": 1241,
      "introdu": 1242,
      "sty": 1243,
      "development": 1244,
      "kes": 1245,
      "method": 1246,
      "gal": 1247,
      "clear": 1248,
      "bet": 1249,
      "possible": 1250,
      "groups": 1251,
      "liter": 1252,
      "late": 1253,
      "cil": 1254,
      "anal": 1255,
      "geor": 1256,
      "ged": 1257,
      "ground": 1258,
      "model": 1259,
      "attempt": 1260,
      "recent": 1261,
      "post": 1262,
      "single": 1263,
      "river": 1264,
      "ches": 1265,
      "further": 1266,
      "ought": 1267,
      "france": 1268,
      "special": 1269,
      "ctor": 1270,
      "face": 1271,
      "ident": 1272,
      "hard": 1273,
      "ran": 1274,
      "ray": 1275,
      "function": 1276,
      "istic": 1277,
      "vidu": 1278,
      "base": 1279,
      "individu": 1280,
      "ines": 1281,
      "ially": 1282,
      "event": 1283,
      "court": 1284,
      "natural": 1285,
      "km": 1286,
      "report": 1287,
      "ana": 1288,
      "sea": 1289,
      "fra": 1290,
      "company": 1291,
      "dro": 1292,
      "sat": 1293,
      "action": 1294,
      "chi": 1295,
      "ont": 1296,
      "loy": 1297,
      "ality": 1298,
      "games": 1299,
      "hen": 1300,
      "engine": 1301,
      "kingdom": 1302,
      "return": 1303,
      "named": 1304,
      "along": 1305,
      "stant": 1306,
      "england": 1307,
      "data": 1308,
      "ental": 1309,
      "died": 1310,
      "sex": 1311,
      "ina": 1312,
      "alth": 1313,
      "dies": 1314,
      "hip": 1315,
      "mathem": 1316,
      "blo": 1317,
      "rather": 1318,
      "invol": 1319,
      "published": 1320,
      "say": 1321,
      "father": 1322,
      "greek": 1323,
      "economic": 1324,
      "espe": 1325,
      "ement": 1326,
      "ption": 1327,
      "dict": 1328,
      "strong": 1329,
      "domin": 1330,
      "bes": 1331,
      "scot": 1332,
      "germany": 1333,
      "dou": 1334,
      "conne": 1335,
      "mass": 1336,
      "ological": 1337,
      "care": 1338,
      "ised": 1339,
      "feder": 1340,
      "lond": 1341,
      "ply": 1342,
      "gust": 1343,
      "said": 1344,
      "scient": 1345,
      "ague": 1346,
      "battle": 1347,
      "cially": 1348,
      "hom": 1349,
      "wards": 1350,
      "cho": 1351,
      "million": 1352,
      "ony": 1353,
      "amp": 1354,
      "london": 1355,
      "dest": 1356,
      "quest": 1357,
      "take": 1358,
      "decl": 1359,
      "verse": 1360,
      "abo": 1361,
      "capital": 1362,
      "local": 1363,
      "army": 1364,
      "rael": 1365,
      "interest": 1366,
      "ni": 1367,
      "fem": 1368,
      "ography": 1369,
      "aren": 1370,
      "cat": 1371,
      "super": 1372,
      "research": 1373,
      "books": 1374,
      "sit": 1375,
      "project": 1376,
      "fac": 1377,
      "mater": 1378,
      "member": 1379,
      "developed": 1380,
      "held": 1381,
      "sun": 1382,
      "either": 1383,
      "feat": 1384,
      "ient": 1385,
      "empire": 1386,
      "ison": 1387,
      "tion": 1388,
      "bul": 1389,
      "market": 1390,
      "ential": 1391,
      "israel": 1392,
      "soviet": 1393,
      "service": 1394,
      "appear": 1395,
      "ends": 1396,
      "words": 1397,
      "concept": 1398,
      "text": 1399,
      "dev": 1400,
      "nal": 1401,
      "cogn": 1402,
      "micro": 1403,
      "els": 1404,
      "fall": 1405,
      "big": 1406,
      "educ": 1407,
      "famous": 1408,
      "complete": 1409,
      "college": 1410,
      "nic": 1411,
      "ko": 1412,
      "vin": 1413,
      "cath": 1414,
      "total": 1415,
      "america": 1416,
      "bat": 1417,
      "william": 1418,
      "ues": 1419,
      "rock": 1420,
      "termin": 1421,
      "youn": 1422,
      "sis": 1423,
      "today": 1424,
      "took": 1425,
      "ier": 1426,
      "ener": 1427,
      "activ": 1428,
      "wood": 1429,
      "moun": 1430,
      "bill": 1431,
      "separ": 1432,
      "minister": 1433,
      "means": 1434,
      "ration": 1435,
      "code": 1436,
      "syn": 1437,
      "forces": 1438,
      "white": 1439,
      "third": 1440,
      "whe": 1441,
      "ime": 1442,
      "lic": 1443,
      "clu": 1444,
      "type": 1445,
      "frequ": 1446,
      "especially": 1447,
      "marri": 1448,
      "material": 1449,
      "regard": 1450,
      "ax": 1451,
      "craft": 1452,
      "cup": 1453,
      "occur": 1454,
      "ense": 1455,
      "sound": 1456,
      "center": 1457,
      "bour": 1458,
      "revol": 1459,
      "society": 1460,
      "enter": 1461,
      "meas": 1462,
      "fort": 1463,
      "olic": 1464,
      "children": 1465,
      "days": 1466,
      "instit": 1467,
      "concer": 1468,
      "ots": 1469,
      "ff": 1470,
      "card": 1471,
      "count": 1472,
      "alb": 1473,
      "culture": 1474,
      "mand": 1475,
      "board": 1476,
      "inste": 1477,
      "medi": 1478,
      "having": 1479,
      "ances": 1480,
      "seen": 1481,
      "novel": 1482,
      "played": 1483,
      "dge": 1484,
      "august": 1485,
      "image": 1486,
      "came": 1487,
      "story": 1488,
      "tar": 1489,
      "begin": 1490,
      "princi": 1491,
      "himself": 1492,
      "broad": 1493,
      "islands": 1494,
      "march": 1495,
      "ked": 1496,
      "hit": 1497,
      "avail": 1498,
      "init": 1499,
      "netw": 1500,
      "accept": 1501,
      "full": 1502,
      "sent": 1503,
      "itive": 1504,
      "subject": 1505,
      "tom": 1506,
      "sure": 1507,
      "arg": 1508,
      "comes": 1509,
      "iness": 1510,
      "vious": 1511,
      "via": 1512,
      "aries": 1513,
      "upon": 1514,
      "related": 1515,
      "production": 1516,
      "dar": 1517,
      "placed": 1518,
      "itself": 1519,
      "ius": 1520,
      "little": 1521,
      "ges": 1522,
      "arab": 1523,
      "mac": 1524,
      "building": 1525,
      "created": 1526,
      "signific": 1527,
      "dece": 1528,
      "tail": 1529,
      "fu": 1530,
      "council": 1531,
      "region": 1532,
      "cit": 1533,
      "dri": 1534,
      "round": 1535,
      "above": 1536,
      "lower": 1537,
      "van": 1538,
      "tware": 1539,
      "role": 1540,
      "dle": 1541,
      "sam": 1542,
      "ril": 1543,
      "software": 1544,
      "ira": 1545,
      "tran": 1546,
      "largest": 1547,
      "final": 1548,
      "spir": 1549,
      "minist": 1550,
      "sla": 1551,
      "hab": 1552,
      "manag": 1553,
      "suf": 1554,
      "references": 1555,
      "eved": 1556,
      "nav": 1557,
      "profess": 1558,
      "ram": 1559,
      "lied": 1560,
      "san": 1561,
      "foreign": 1562,
      "ander": 1563,
      "almost": 1564,
      "site": 1565,
      "gun": 1566,
      "james": 1567,
      "span": 1568,
      "cost": 1569,
      "territ": 1570,
      "once": 1571,
      "lies": 1572,
      "fig": 1573,
      "dig": 1574,
      "mich": 1575,
      "album": 1576,
      "rights": 1577,
      "jewish": 1578,
      "fire": 1579,
      "actor": 1580,
      "league": 1581,
      "religious": 1582,
      "fair": 1583,
      "making": 1584,
      "study": 1585,
      "ago": 1586,
      "half": 1587,
      "ene": 1588,
      "trade": 1589,
      "mart": 1590,
      "january": 1591,
      "released": 1592,
      "gold": 1593,
      "ki": 1594,
      "relation": 1595,
      "corpor": 1596,
      "redu": 1597,
      "tour": 1598,
      "ured": 1599,
      "pain": 1600,
      "numbers": 1601,
      "close": 1602,
      "chan": 1603,
      "rate": 1604,
      "inst": 1605,
      "living": 1606,
      "cut": 1607,
      "lay": 1608,
      "fle": 1609,
      "nu": 1610,
      "areas": 1611,
      "pho": 1612,
      "movement": 1613,
      "hon": 1614,
      "han": 1615,
      "community": 1616,
      "source": 1617,
      "gue": 1618,
      "toge": 1619,
      "wind": 1620,
      "together": 1621,
      "sed": 1622,
      "produced": 1623,
      "lands": 1624,
      "built": 1625,
      "hun": 1626,
      "pan": 1627,
      "latin": 1628,
      "radio": 1629,
      "meaning": 1630,
      "augh": 1631,
      "won": 1632,
      "parts": 1633,
      "evol": 1634,
      "ancient": 1635,
      "auto": 1636,
      "pot": 1637,
      "alex": 1638,
      "terms": 1639,
      "sil": 1640,
      "inte": 1641,
      "northern": 1642,
      "reach": 1643,
      "vict": 1644,
      "ti": 1645,
      "available": 1646,
      "road": 1647,
      "pap": 1648,
      "exec": 1649,
      "middle": 1650,
      "style": 1651,
      "might": 1652,
      "psy": 1653,
      "constitution": 1654,
      "rown": 1655,
      "energy": 1656,
      "women": 1657,
      "recogn": 1658,
      "neg": 1659,
      "sug": 1660,
      "note": 1661,
      "lou": 1662,
      "next": 1663,
      "cel": 1664,
      "december": 1665,
      "complex": 1666,
      "polic": 1667,
      "ately": 1668,
      "japanese": 1669,
      "sib": 1670,
      "china": 1671,
      "chinese": 1672,
      "canada": 1673,
      "constru": 1674,
      "parliam": 1675,
      "jac": 1676,
      "pp": 1677,
      "established": 1678,
      "aut": 1679,
      "sept": 1680,
      "symb": 1681,
      "secre": 1682,
      "earli": 1683,
      "green": 1684,
      "compe": 1685,
      "david": 1686,
      "viol": 1687,
      "television": 1688,
      "ane": 1689,
      "live": 1690,
      "legal": 1691,
      "too": 1692,
      "prob": 1693,
      "exper": 1694,
      "george": 1695,
      "mathemat": 1696,
      "cial": 1697,
      "stra": 1698,
      "ino": 1699,
      "ica": 1700,
      "vide": 1701,
      "asing": 1702,
      "significant": 1703,
      "eastern": 1704,
      "communic": 1705,
      "parliament": 1706,
      "mur": 1707,
      "july": 1708,
      "names": 1709,
      "thought": 1710,
      "ination": 1711,
      "nia": 1712,
      "transl": 1713,
      "cross": 1714,
      "grad": 1715,
      "lines": 1716,
      "paul": 1717,
      "ww": 1718,
      "range": 1719,
      "writer": 1720,
      "tor": 1721,
      "ky": 1722,
      "love": 1723,
      "applic": 1724,
      "suggest": 1725,
      "charles": 1726,
      "taken": 1727,
      "ators": 1728,
      "except": 1729,
      "combin": 1730,
      "evid": 1731,
      "ets": 1732,
      "catholic": 1733,
      "ross": 1734,
      "business": 1735,
      "instead": 1736,
      "covered": 1737,
      "squ": 1738,
      "football": 1739,
      "india": 1740,
      "ending": 1741,
      "scri": 1742,
      "ops": 1743,
      "ney": 1744,
      "mc": 1745,
      "lect": 1746,
      "fail": 1747,
      "traditional": 1748,
      "arily": 1749,
      "successful": 1750,
      "jour": 1751,
      "vot": 1752,
      "june": 1753,
      "mp": 1754,
      "era": 1755,
      "ids": 1756,
      "included": 1757,
      "eve": 1758,
      "gor": 1759,
      "gas": 1760,
      "moved": 1761,
      "commit": 1762,
      "revolution": 1763,
      "active": 1764,
      "nove": 1765,
      "ize": 1766,
      "least": 1767,
      "rang": 1768,
      "young": 1769,
      "altern": 1770,
      "compan": 1771,
      "dut": 1772,
      "cry": 1773,
      "ember": 1774,
      "ible": 1775,
      "gress": 1776,
      "ht": 1777,
      "tru": 1778,
      "ink": 1779,
      "coast": 1780,
      "prime": 1781,
      "economy": 1782,
      "ny": 1783,
      "envir": 1784,
      "entire": 1785,
      "always": 1786,
      "emperor": 1787,
      "atom": 1788,
      "season": 1789,
      "november": 1790,
      "italian": 1791,
      "agree": 1792,
      "food": 1793,
      "specific": 1794,
      "mad": 1795,
      "sain": 1796,
      "environ": 1797,
      "cid": 1798,
      "docum": 1799,
      "itch": 1800,
      "players": 1801,
      "nation": 1802,
      "cali": 1803,
      "pose": 1804,
      "april": 1805,
      "imp": 1806,
      "hi": 1807,
      "rote": 1808,
      "bud": 1809,
      "audi": 1810,
      "night": 1811,
      "labor": 1812,
      "mission": 1813,
      "pect": 1814,
      "nature": 1815,
      "september": 1816,
      "mach": 1817,
      "lost": 1818,
      "octo": 1819,
      "ror": 1820,
      "bridge": 1821,
      "previous": 1822,
      "southern": 1823,
      "mone": 1824,
      "page": 1825,
      "grand": 1826,
      "commer": 1827,
      "technology": 1828,
      "experi": 1829,
      "true": 1830,
      "ream": 1831,
      "wer": 1832,
      "teach": 1833,
      "priv": 1834,
      "spanish": 1835,
      "october": 1836,
      "kar": 1837,
      "edia": 1838,
      "maint": 1839,
      "carri": 1840,
      "jer": 1841,
      "relative": 1842,
      "asse": 1843,
      "ied": 1844,
      "value": 1845,
      "dec": 1846,
      "py": 1847,
      "continued": 1848,
      "mary": 1849,
      "ek": 1850,
      "ama": 1851,
      "royal": 1852,
      "acy": 1853,
      "done": 1854,
      "ns": 1855,
      "ships": 1856,
      "individual": 1857,
      "hold": 1858,
      "ival": 1859,
      "invest": 1860,
      "selves": 1861,
      "bot": 1862,
      "russian": 1863,
      "gain": 1864,
      "iss": 1865,
      "attack": 1866,
      "indic": 1867,
      "seem": 1868,
      "wrote": 1869,
      "imm": 1870,
      "amoun": 1871,
      "africa": 1872,
      "secret": 1873,
      "mechan": 1874,
      "employ": 1875,
      "here": 1876,
      "structure": 1877,
      "mother": 1878,
      "va": 1879,
      "record": 1880,
      "manu": 1881,
      "rule": 1882,
      "temper": 1883,
      "news": 1884,
      "front": 1885,
      "thom": 1886,
      "ument": 1887,
      "historical": 1888,
      "ses": 1889,
      "whose": 1890,
      "served": 1891,
      "knowled": 1892,
      "rail": 1893,
      "feature": 1894,
      "constant": 1895,
      "diffic": 1896,
      "species": 1897,
      "techni": 1898,
      "symbol": 1899,
      "onic": 1900,
      "administ": 1901,
      "apt": 1902,
      "difficult": 1903,
      "sho": 1904,
      "tu": 1905,
      "reason": 1906,
      "color": 1907,
      "distin": 1908,
      "australia": 1909,
      "distribut": 1910,
      "cases": 1911,
      "nations": 1912,
      "desp": 1913,
      "peace": 1914,
      "itar": 1915,
      "hop": 1916,
      "minor": 1917,
      "particularly": 1918,
      "convent": 1919,
      "burg": 1920,
      "office": 1921,
      "fav": 1922,
      "aw": 1923,
      "ining": 1924,
      "brother": 1925,
      "deb": 1926,
      "adop": 1927,
      "fut": 1928,
      "mel": 1929,
      "nes": 1930,
      "evidence": 1931,
      "cities": 1932,
      "iso": 1933,
      "themselves": 1934,
      "ret": 1935,
      "quar": 1936,
      "mes": 1937,
      "ceed": 1938,
      "influence": 1939,
      "speed": 1940,
      "title": 1941,
      "colum": 1942,
      "box": 1943,
      "past": 1944,
      "prop": 1945,
      "referred": 1946,
      "necess": 1947,
      "host": 1948,
      "below": 1949,
      "extre": 1950,
      "egy": 1951,
      "ties": 1952,
      "electron": 1953,
      "throughout": 1954,
      "onom": 1955,
      "exten": 1956,
      "female": 1957,
      "problem": 1958,
      "therefore": 1959,
      "democr": 1960,
      "arm": 1961,
      "febr": 1962,
      "chief": 1963,
      "fish": 1964,
      "gs": 1965,
      "environment": 1966,
      "instr": 1967,
      "independent": 1968,
      "education": 1969,
      "february": 1970,
      "network": 1971,
      "critic": 1972,
      "travel": 1973,
      "hing": 1974,
      "enced": 1975,
      "irish": 1976,
      "philosophy": 1977,
      "libr": 1978,
      "rome": 1979,
      "counter": 1980,
      "impro": 1981,
      "command": 1982,
      "higher": 1983,
      "coming": 1984,
      "originally": 1985,
      "rap": 1986,
      "egypt": 1987,
      "max": 1988,
      "award": 1989,
      "films": 1990,
      "ery": 1991,
      "access": 1992,
      "web": 1993,
      "glo": 1994,
      "ls": 1995,
      "islam": 1996,
      "elements": 1997,
      "robert": 1998,
      "ai": 1999,
      "bow": 2000,
      "rat": 2001,
      "discus": 2002,
      "whether": 2003,
      "despite": 2004,
      "went": 2005,
      "eventually": 2006,
      "lear": 2007,
      "types": 2008,
      "male": 2009,
      "hea": 2010,
      "internet": 2011,
      "ald": 2012,
      "practice": 2013,
      "istics": 2014,
      "electric": 2015,
      "empor": 2016,
      "ave": 2017,
      "ified": 2018,
      "blue": 2019,
      "described": 2020,
      "angel": 2021,
      "consist": 2022,
      "claimed": 2023,
      "interpre": 2024,
      "fix": 2025,
      "characters": 2026,
      "points": 2027,
      "african": 2028,
      "laws": 2029,
      "dru": 2030,
      "ula": 2031,
      "aver": 2032,
      "mix": 2033,
      "execut": 2034,
      "belief": 2035,
      "nom": 2036,
      "print": 2037,
      "events": 2038,
      "istan": 2039,
      "pression": 2040,
      "tax": 2041,
      "commonly": 2042,
      "fant": 2043,
      "fal": 2044,
      "ateg": 2045,
      "explo": 2046,
      "pha": 2047,
      "tex": 2048,
      "tv": 2049,
      "problems": 2050,
      "flo": 2051,
      "cou": 2052,
      "personal": 2053,
      "schol": 2054,
      "fiction": 2055,
      "received": 2056,
      "lor": 2057,
      "imin": 2058,
      "maintain": 2059,
      "cks": 2060,
      "pie": 2061,
      "jews": 2062,
      "ech": 2063,
      "chemical": 2064,
      "usion": 2065,
      "ques": 2066,
      "industri": 2067,
      "indian": 2068,
      "wall": 2069,
      "soon": 2070,
      "phen": 2071,
      "numer": 2072,
      "unch": 2073,
      "vic": 2074,
      "bran": 2075,
      "ades": 2076,
      "standing": 2077,
      "leader": 2078,
      "typically": 2079,
      "ites": 2080,
      "physical": 2081,
      "aged": 2082,
      "defined": 2083,
      "strict": 2084,
      "help": 2085,
      "ases": 2086,
      "colon": 2087,
      "size": 2088,
      "includes": 2089,
      "stry": 2090,
      "occup": 2091,
      "outside": 2092,
      "spo": 2093,
      "frank": 2094,
      "writing": 2095,
      "ey": 2096,
      "wing": 2097,
      "assi": 2098,
      "offer": 2099,
      "birth": 2100,
      "ounced": 2101,
      "contribut": 2102,
      "photo": 2103,
      "ston": 2104,
      "basic": 2105,
      "imately": 2106,
      "actually": 2107,
      "conserv": 2108,
      "transport": 2109,
      "wat": 2110,
      "ready": 2111,
      "controver": 2112,
      "ordin": 2113,
      "followed": 2114,
      "hydro": 2115,
      "nar": 2116,
      "poet": 2117,
      "leaders": 2118,
      "deaths": 2119,
      "henry": 2120,
      "invent": 2121,
      "ows": 2122,
      "bom": 2123,
      "acade": 2124,
      "away": 2125,
      "widely": 2126,
      "rect": 2127,
      "ering": 2128,
      "divi": 2129,
      "sus": 2130,
      "bish": 2131,
      "aps": 2132,
      "saw": 2133,
      "rain": 2134,
      "arts": 2135,
      "elected": 2136,
      "jes": 2137,
      "stree": 2138,
      "berg": 2139,
      "course": 2140,
      "movie": 2141,
      "video": 2142,
      "anted": 2143,
      "beginning": 2144,
      "edition": 2145,
      "scientific": 2146,
      "mountain": 2147,
      "itz": 2148,
      "express": 2149,
      "archite": 2150,
      "inde": 2151,
      "letter": 2152,
      "changes": 2153,
      "knowledge": 2154,
      "independence": 2155,
      "cli": 2156,
      "detail": 2157,
      "bank": 2158,
      "sess": 2159,
      "champ": 2160,
      "aircraft": 2161,
      "canadian": 2162,
      "spirit": 2163,
      "future": 2164,
      "forman": 2165,
      "births": 2166,
      "idea": 2167,
      "survi": 2168,
      "louis": 2169,
      "your": 2170,
      "dead": 2171,
      "bell": 2172,
      "hum": 2173,
      "bound": 2174,
      "lord": 2175,
      "bia": 2176,
      "health": 2177,
      "simply": 2178,
      "located": 2179,
      "examples": 2180,
      "speak": 2181,
      "classical": 2182,
      "integr": 2183,
      "myth": 2184,
      "ising": 2185,
      "queen": 2186,
      "organization": 2187,
      "introduced": 2188,
      "industry": 2189,
      "experim": 2190,
      "limited": 2191,
      "extreme": 2192,
      "park": 2193,
      "webs": 2194,
      "psych": 2195,
      "cause": 2196,
      "deal": 2197,
      "approx": 2198,
      "anth": 2199,
      "designed": 2200,
      "sl": 2201,
      "working": 2202,
      "califor": 2203,
      "increasing": 2204,
      "secur": 2205,
      "leng": 2206,
      "believe": 2207,
      "nel": 2208,
      "hall": 2209,
      "fight": 2210,
      "appoint": 2211,
      "ov": 2212,
      "media": 2213,
      "date": 2214,
      "pus": 2215,
      "quant": 2216,
      "services": 2217,
      "argu": 2218,
      "ael": 2219,
      "regular": 2220,
      "sin": 2221,
      "asia": 2222,
      "federal": 2223,
      "plement": 2224,
      "atives": 2225,
      "manufact": 2226,
      "uation": 2227,
      "britain": 2228,
      "majority": 2229,
      "appeared": 2230,
      "features": 2231,
      "austri": 2232,
      "sense": 2233,
      "teen": 2234,
      "poly": 2235,
      "find": 2236,
      "cannot": 2237,
      "aking": 2238,
      "die": 2239,
      "mole": 2240,
      "analys": 2241,
      "construction": 2242,
      "ali": 2243,
      "intell": 2244,
      "ireland": 2245,
      "mun": 2246,
      "associated": 2247,
      "intellig": 2248,
      "yet": 2249,
      "atl": 2250,
      "required": 2251,
      "isto": 2252,
      "singer": 2253,
      "founded": 2254,
      "hib": 2255,
      "emer": 2256,
      "ico": 2257,
      "greg": 2258,
      "currently": 2259,
      "itor": 2260,
      "performan": 2261,
      "started": 2262,
      "california": 2263,
      "gg": 2264,
      "ission": 2265,
      "aster": 2266,
      "allowed": 2267,
      "flow": 2268,
      "liberal": 2269,
      "actions": 2270,
      "leading": 2271,
      "religion": 2272,
      "proto": 2273,
      "station": 2274,
      "believed": 2275,
      "operation": 2276,
      "stone": 2277,
      "likely": 2278,
      "resour": 2279,
      "muse": 2280,
      "policy": 2281,
      "alpha": 2282,
      "meet": 2283,
      "lake": 2284,
      "iii": 2285,
      "pay": 2286,
      "lie": 2287,
      "county": 2288,
      "rules": 2289,
      "unit": 2290,
      "studies": 2291,
      "evolution": 2292,
      "chann": 2293,
      "determin": 2294,
      "arent": 2295,
      "element": 2296,
      "jose": 2297,
      "approach": 2298,
      "cd": 2299,
      "demon": 2300,
      "acts": 2301,
      "mos": 2302,
      "richard": 2303,
      "hot": 2304,
      "soft": 2305,
      "election": 2306,
      "online": 2307,
      "provide": 2308,
      "architect": 2309,
      "thomas": 2310,
      "weap": 2311,
      "hour": 2312,
      "depart": 2313,
      "cru": 2314,
      "fell": 2315,
      "australian": 2316,
      "added": 2317,
      "question": 2318,
      "ify": 2319,
      "document": 2320,
      "relations": 2321,
      "russia": 2322,
      "oil": 2323,
      "greater": 2324,
      "earlier": 2325,
      "growth": 2326,
      "prov": 2327,
      "ensive": 2328,
      "blood": 2329,
      "brought": 2330,
      "break": 2331,
      "quick": 2332,
      "association": 2333,
      "deci": 2334,
      "things": 2335,
      "copy": 2336,
      "chap": 2337,
      "rema": 2338,
      "wise": 2339,
      "mostly": 2340,
      "possib": 2341,
      "pun": 2342,
      "ilities": 2343,
      "vert": 2344,
      "map": 2345,
      "citiz": 2346,
      "across": 2347,
      "astr": 2348,
      "hill": 2349,
      "atory": 2350,
      "decis": 2351,
      "simple": 2352,
      "famil": 2353,
      "saint": 2354,
      "pron": 2355,
      "bay": 2356,
      "require": 2357,
      "effects": 2358,
      "machine": 2359,
      "ened": 2360,
      "produce": 2361,
      "ctr": 2362,
      "sec": 2363,
      "security": 2364,
      "thy": 2365,
      "beha": 2366,
      "boy": 2367,
      "museum": 2368,
      "eval": 2369,
      "legis": 2370,
      "sources": 2371,
      "changed": 2372,
      "roll": 2373,
      "gave": 2374,
      "zo": 2375,
      "utions": 2376,
      "pict": 2377,
      "remains": 2378,
      "probably": 2379,
      "happ": 2380,
      "sele": 2381,
      "protest": 2382,
      "swed": 2383,
      "mob": 2384,
      "reference": 2385,
      "freed": 2386,
      "lad": 2387,
      "longer": 2388,
      "hero": 2389,
      "give": 2390,
      "dol": 2391,
      "creation": 2392,
      "definition": 2393,
      "bey": 2394,
      "hind": 2395,
      "analysis": 2396,
      "killed": 2397,
      "career": 2398,
      "mir": 2399,
      "wife": 2400,
      "stor": 2401,
      "ku": 2402,
      "issues": 2403,
      "zil": 2404,
      "musical": 2405,
      "intel": 2406,
      "playing": 2407,
      "private": 2408,
      "ume": 2409,
      "prince": 2410,
      "etc": 2411,
      "sky": 2412,
      "isms": 2413,
      "capt": 2414,
      "better": 2415,
      "len": 2416,
      "address": 2417,
      "extra": 2418,
      "cultural": 2419,
      "keep": 2420,
      "prevent": 2421,
      "holy": 2422,
      "issue": 2423,
      "stories": 2424,
      "script": 2425,
      "money": 2426,
      "amount": 2427,
      "products": 2428,
      "bol": 2429,
      "tun": 2430,
      "division": 2431,
      "married": 2432,
      "spain": 2433,
      "companies": 2434,
      "actress": 2435,
      "parties": 2436,
      "prize": 2437,
      "larger": 2438,
      "diction": 2439,
      "theore": 2440,
      "becomes": 2441,
      "room": 2442,
      "oce": 2443,
      "za": 2444,
      "sexual": 2445,
      "conf": 2446,
      "muslim": 2447,
      "bad": 2448,
      "governor": 2449,
      "remained": 2450,
      "scott": 2451,
      "oid": 2452,
      "website": 2453,
      "contr": 2454,
      "months": 2455,
      "cies": 2456,
      "politics": 2457,
      "tan": 2458,
      "territory": 2459,
      "ior": 2460,
      "mind": 2461,
      "michael": 2462,
      "commercial": 2463,
      "haps": 2464,
      "mess": 2465,
      "brew": 2466,
      "largely": 2467,
      "divided": 2468,
      "section": 2469,
      "contains": 2470,
      "ously": 2471,
      "anger": 2472,
      "makes": 2473,
      "dutch": 2474,
      "sac": 2475,
      "ician": 2476,
      "moon": 2477,
      "destroy": 2478,
      "medic": 2479,
      "perhaps": 2480,
      "library": 2481,
      "views": 2482,
      "behavi": 2483,
      "mann": 2484,
      "fully": 2485,
      "mex": 2486,
      "wealth": 2487,
      "journal": 2488,
      "programming": 2489,
      "already": 2490,
      "calcul": 2491,
      "matter": 2492,
      "separate": 2493,
      "imper": 2494,
      "rew": 2495,
      "agric": 2496,
      "motion": 2497,
      "letters": 2498,
      "legisl": 2499,
      "friend": 2500,
      "got": 2501,
      "product": 2502,
      "surface": 2503,
      "kind": 2504,
      "peter": 2505,
      "italy": 2506,
      "dim": 2507,
      "subsequ": 2508,
      "gam": 2509,
      "look": 2510,
      "whole": 2511,
      "fication": 2512,
      "user": 2513,
      "bing": 2514,
      "aur": 2515,
      "ides": 2516,
      "results": 2517,
      "washing": 2518,
      "occas": 2519,
      "latter": 2520,
      "measure": 2521,
      "pse": 2522,
      "core": 2523,
      "ference": 2524,
      "paign": 2525,
      "formal": 2526,
      "metal": 2527,
      "confl": 2528,
      "club": 2529,
      "lying": 2530,
      "philosoph": 2531,
      "congress": 2532,
      "mod": 2533,
      "condu": 2534,
      "directly": 2535,
      "kings": 2536,
      "orthod": 2537,
      "ention": 2538,
      "cand": 2539,
      "disput": 2540,
      "caused": 2541,
      "director": 2542,
      "distric": 2543,
      "highly": 2544,
      "status": 2545,
      "iving": 2546,
      "native": 2547,
      "champion": 2548,
      "orthodox": 2549,
      "campaign": 2550,
      "carbon": 2551,
      "faith": 2552,
      "tem": 2553,
      "avy": 2554,
      "implement": 2555,
      "los": 2556,
      "release": 2557,
      "particip": 2558,
      "authority": 2559,
      "treaty": 2560,
      "claims": 2561,
      "double": 2562,
      "ria": 2563,
      "rid": 2564,
      "hood": 2565,
      "gary": 2566,
      "portu": 2567,
      "phone": 2568,
      "notes": 2569,
      "oly": 2570,
      "pected": 2571,
      "multip": 2572,
      "ogy": 2573,
      "tas": 2574,
      "functions": 2575,
      "magaz": 2576,
      "whom": 2577,
      "uments": 2578,
      "stan": 2579,
      "agricult": 2580,
      "cele": 2581,
      "shar": 2582,
      "prison": 2583,
      "publish": 2584,
      "memory": 2585,
      "flag": 2586,
      "towards": 2587,
      "normal": 2588,
      "bass": 2589,
      "rise": 2590,
      "loss": 2591,
      "enough": 2592,
      "cles": 2593,
      "basis": 2594,
      "ports": 2595,
      "forced": 2596,
      "smith": 2597,
      "rare": 2598,
      "primary": 2599,
      "alexander": 2600,
      "table": 2601,
      "thous": 2602,
      "pective": 2603,
      "going": 2604,
      "sian": 2605,
      "tp": 2606,
      "account": 2607,
      "digital": 2608,
      "street": 2609,
      "length": 2610,
      "daugh": 2611,
      "effective": 2612,
      "provided": 2613,
      "uries": 2614,
      "replaced": 2615,
      "master": 2616,
      "dog": 2617,
      "fel": 2618,
      "load": 2619,
      "literature": 2620,
      "scre": 2621,
      "jun": 2622,
      "resid": 2623,
      "joseph": 2624,
      "square": 2625,
      "zi": 2626,
      "kin": 2627,
      "fast": 2628,
      "expla": 2629,
      "medical": 2630,
      "ert": 2631,
      "acks": 2632,
      "flight": 2633,
      "average": 2634,
      "classi": 2635,
      "property": 2636,
      "smaller": 2637,
      "iting": 2638,
      "ket": 2639,
      "elections": 2640,
      "collection": 2641,
      "students": 2642,
      "dance": 2643,
      "degree": 2644,
      "commission": 2645,
      "ners": 2646,
      "performance": 2647,
      "alternative": 2648,
      "ware": 2649,
      "frequently": 2650,
      "washington": 2651,
      "compar": 2652,
      "industrial": 2653,
      "phy": 2654,
      "aves": 2655,
      "ocean": 2656,
      "schools": 2657,
      "nearly": 2658,
      "mut": 2659,
      "woman": 2660,
      "mention": 2661,
      "comput": 2662,
      "kil": 2663,
      "assemb": 2664,
      "jesus": 2665,
      "baseball": 2666,
      "paper": 2667,
      "apol": 2668,
      "ape": 2669,
      "race": 2670,
      "arri": 2671,
      "sey": 2672,
      "programs": 2673,
      "emporary": 2674,
      "asons": 2675,
      "ingu": 2676,
      "reli": 2677,
      "freedom": 2678,
      "discovered": 2679,
      "ideas": 2680,
      "democratic": 2681,
      "thousand": 2682,
      "alleg": 2683,
      "jack": 2684,
      "sett": 2685,
      "multi": 2686,
      "records": 2687,
      "appears": 2688,
      "iron": 2689,
      "highest": 2690,
      "increase": 2691,
      "brown": 2692,
      "finally": 2693,
      "comed": 2694,
      "share": 2695,
      "ya": 2696,
      "cred": 2697,
      "phere": 2698,
      "notable": 2699,
      "create": 2700,
      "heavy": 2701,
      "izations": 2702,
      "methods": 2703,
      "vit": 2704,
      "recently": 2705,
      "ix": 2706,
      "ost": 2707,
      "taking": 2708,
      "observ": 2709,
      "border": 2710,
      "involved": 2711,
      "units": 2712,
      "variety": 2713,
      "takes": 2714,
      "clop": 2715,
      "launch": 2716,
      "virt": 2717,
      "rot": 2718,
      "iel": 2719,
      "kore": 2720,
      "committe": 2721,
      "asy": 2722,
      "atlant": 2723,
      "objects": 2724,
      "nuclear": 2725,
      "sor": 2726,
      "stream": 2727,
      "stage": 2728,
      "utes": 2729,
      "file": 2730,
      "increased": 2731,
      "thu": 2732,
      "conditions": 2733,
      "usa": 2734,
      "windows": 2735,
      "inc": 2736,
      "pher": 2737,
      "stal": 2738,
      "wit": 2739,
      "week": 2740,
      "scale": 2741,
      "ables": 2742,
      "path": 2743,
      "lon": 2744,
      "relatively": 2745,
      "pack": 2746,
      "diale": 2747,
      "returned": 2748,
      "relationship": 2749,
      "anced": 2750,
      "tend": 2751,
      "francis": 2752,
      "sions": 2753,
      "adopted": 2754,
      "chic": 2755,
      "ards": 2756,
      "iter": 2757,
      "bbc": 2758,
      "existence": 2759,
      "chemist": 2760,
      "poor": 2761,
      "iation": 2762,
      "fif": 2763,
      "fiel": 2764,
      "plat": 2765,
      "assembly": 2766,
      "immedi": 2767,
      "genet": 2768,
      "nd": 2769,
      "estim": 2770,
      "lis": 2771,
      "plant": 2772,
      "operating": 2773,
      "wis": 2774,
      "repe": 2775,
      "paris": 2776,
      "guitar": 2777,
      "animals": 2778,
      "writers": 2779,
      "habit": 2780,
      "math": 2781,
      "ulated": 2782,
      "reported": 2783,
      "hed": 2784,
      "org": 2785,
      "sets": 2786,
      "ays": 2787,
      "prior": 2788,
      "ease": 2789,
      "von": 2790,
      "assist": 2791,
      "universe": 2792,
      "versions": 2793,
      "heart": 2794,
      "professional": 2795,
      "categ": 2796,
      "resist": 2797,
      "ification": 2798,
      "ires": 2799,
      "powers": 2800,
      "stop": 2801,
      "stein": 2802,
      "din": 2803,
      "behind": 2804,
      "perform": 2805,
      "algor": 2806,
      "gres": 2807,
      "numerous": 2808,
      "deep": 2809,
      "apple": 2810,
      "passed": 2811,
      "celebr": 2812,
      "martin": 2813,
      "pressure": 2814,
      "mol": 2815,
      "fest": 2816,
      "ficient": 2817,
      "institute": 2818,
      "joy": 2819,
      "algorith": 2820,
      "rand": 2821,
      "ivity": 2822,
      "equal": 2823,
      "cens": 2824,
      "ping": 2825,
      "recorded": 2826,
      "ji": 2827,
      "bles": 2828,
      "experience": 2829,
      "duke": 2830,
      "centre": 2831,
      "concent": 2832,
      "encyclop": 2833,
      "resol": 2834,
      "shows": 2835,
      "monarch": 2836,
      "defense": 2837,
      "primarily": 2838,
      "something": 2839,
      "troops": 2840,
      "hebrew": 2841,
      "acqu": 2842,
      "agreement": 2843,
      "pas": 2844,
      "pul": 2845,
      "adam": 2846,
      "reading": 2847,
      "disco": 2848,
      "zy": 2849,
      "pope": 2850,
      "guide": 2851,
      "neigh": 2852,
      "quot": 2853,
      "electr": 2854,
      "pil": 2855,
      "pattern": 2856,
      "accepted": 2857,
      "liver": 2858,
      "lived": 2859,
      "weight": 2860,
      "applied": 2861,
      "running": 2862,
      "mathematics": 2863,
      "places": 2864,
      "hic": 2865,
      "advant": 2866,
      "marriage": 2867,
      "interpret": 2868,
      "resources": 2869,
      "derived": 2870,
      "thre": 2871,
      "finite": 2872,
      "cher": 2873,
      "thur": 2874,
      "sole": 2875,
      "calend": 2876,
      "izing": 2877,
      "correct": 2878,
      "ark": 2879,
      "wel": 2880,
      "orial": 2881,
      "additional": 2882,
      "demand": 2883,
      "equip": 2884,
      "bishop": 2885,
      "ging": 2886,
      "broadcast": 2887,
      "alle": 2888,
      "jul": 2889,
      "equival": 2890,
      "http": 2891,
      "instance": 2892,
      "dat": 2893,
      "nobel": 2894,
      "kh": 2895,
      "itude": 2896,
      "astic": 2897,
      "purpose": 2898,
      "channel": 2899,
      "dor": 2900,
      "settle": 2901,
      "magazine": 2902,
      "het": 2903,
      "engineering": 2904,
      "conver": 2905,
      "twent": 2906,
      "target": 2907,
      "suffer": 2908,
      "moving": 2909,
      "serious": 2910,
      "frac": 2911,
      "arian": 2912,
      "ada": 2913,
      "older": 2914,
      "shot": 2915,
      "appointed": 2916,
      "hem": 2917,
      "syl": 2918,
      "mainly": 2919,
      "necessary": 2920,
      "hous": 2921,
      "subst": 2922,
      "reser": 2923,
      "pair": 2924,
      "extensive": 2925,
      "quite": 2926,
      "operations": 2927,
      "regions": 2928,
      "aid": 2929,
      "camp": 2930,
      "rupt": 2931,
      "paci": 2932,
      "content": 2933,
      "ethnic": 2934,
      "biography": 2935,
      "div": 2936,
      "soldi": 2937,
      "applications": 2938,
      "sens": 2939,
      "proposed": 2940,
      "lingu": 2941,
      "bapt": 2942,
      "reed": 2943,
      "articles": 2944,
      "mitted": 2945,
      "bible": 2946,
      "hund": 2947,
      "focus": 2948,
      "committee": 2949,
      "alge": 2950,
      "stic": 2951,
      "ville": 2952,
      "financi": 2953,
      "cells": 2954,
      "alo": 2955,
      "police": 2956,
      "urban": 2957,
      "shown": 2958,
      "consists": 2959,
      "introduction": 2960,
      "pra": 2961,
      "fan": 2962,
      "gir": 2963,
      "slow": 2964,
      "tell": 2965,
      "tool": 2966,
      "odes": 2967,
      "daughter": 2968,
      "volume": 2969,
      "dynam": 2970,
      "apparent": 2971,
      "scotland": 2972,
      "branch": 2973,
      "labour": 2974,
      "fill": 2975,
      "levels": 2976,
      "omen": 2977,
      "exact": 2978,
      "quickly": 2979,
      "bb": 2980,
      "properties": 2981,
      "voc": 2982,
      "fundam": 2983,
      "chicago": 2984,
      "write": 2985,
      "songs": 2986,
      "obtain": 2987,
      "values": 2988,
      "dp": 2989,
      "thesis": 2990,
      "comment": 2991,
      "communist": 2992,
      "convention": 2993,
      "vation": 2994,
      "ctors": 2995,
      "poser": 2996,
      "techniques": 2997,
      "computers": 2998,
      "sia": 2999,
      "avoid": 3000,
      "dimens": 3001,
      "track": 3002,
      "sequence": 3003,
      "hundred": 3004,
      "igr": 3005,
      "folk": 3006,
      "animal": 3007,
      "navy": 3008,
      "conflict": 3009,
      "ml": 3010,
      "sir": 3011,
      "resp": 3012,
      "brain": 3013,
      "approximately": 3014,
      "olf": 3015,
      "surround": 3016,
      "cular": 3017,
      "gers": 3018,
      "hus": 3019,
      "composer": 3020,
      "multiple": 3021,
      "oh": 3022,
      "leon": 3023,
      "zed": 3024,
      "suit": 3025,
      "direction": 3026,
      "percent": 3027,
      "centuries": 3028,
      "distingu": 3029,
      "summer": 3030,
      "mode": 3031,
      "possess": 3032,
      "forest": 3033,
      "itation": 3034,
      "accur": 3035,
      "brand": 3036,
      "igned": 3037,
      "circum": 3038,
      "individuals": 3039,
      "philip": 3040,
      "month": 3041,
      "climate": 3042,
      "mont": 3043,
      "location": 3044,
      "management": 3045,
      "ems": 3046,
      "refers": 3047,
      "restrict": 3048,
      "winter": 3049,
      "weak": 3050,
      "jur": 3051,
      "quality": 3052,
      "carry": 3053,
      "activity": 3054,
      "tree": 3055,
      "supported": 3056,
      "rough": 3057,
      "intended": 3058,
      "condition": 3059,
      "response": 3060,
      "temperature": 3061,
      "speech": 3062,
      "cape": 3063,
      "www": 3064,
      "mou": 3065,
      "afgh": 3066,
      "ola": 3067,
      "aim": 3068,
      "compon": 3069,
      "internal": 3070,
      "ament": 3071,
      "coal": 3072,
      "murder": 3073,
      "ake": 3074,
      "achi": 3075,
      "visions": 3076,
      "physics": 3077,
      "worked": 3078,
      "expand": 3079,
      "ano": 3080,
      "desc": 3081,
      "cia": 3082,
      "noted": 3083,
      "signed": 3084,
      "defe": 3085,
      "miles": 3086,
      "imum": 3087,
      "bil": 3088,
      "onia": 3089,
      "spring": 3090,
      "figure": 3091,
      "iran": 3092,
      "plann": 3093,
      "unique": 3094,
      "microsoft": 3095,
      "stock": 3096,
      "nap": 3097,
      "motor": 3098,
      "alco": 3099,
      "dian": 3100,
      "ini": 3101,
      "acid": 3102,
      "oph": 3103,
      "ida": 3104,
      "performed": 3105,
      "rig": 3106,
      "users": 3107,
      "rapid": 3108,
      "treatment": 3109,
      "billion": 3110,
      "mm": 3111,
      "christianity": 3112,
      "concl": 3113,
      "supre": 3114,
      "critical": 3115,
      "joined": 3116,
      "wars": 3117,
      "promin": 3118,
      "kept": 3119,
      "uss": 3120,
      "charge": 3121,
      "transfer": 3122,
      "reform": 3123,
      "calendar": 3124,
      "vill": 3125,
      "loo": 3126,
      "fields": 3127,
      "tical": 3128,
      "phr": 3129,
      "regarded": 3130,
      "gins": 3131,
      "mr": 3132,
      "affair": 3133,
      "bring": 3134,
      "aving": 3135,
      "lun": 3136,
      "budd": 3137,
      "pc": 3138,
      "skill": 3139,
      "vehic": 3140,
      "demonstr": 3141,
      "polish": 3142,
      "magne": 3143,
      "sold": 3144,
      "mail": 3145,
      "isation": 3146,
      "disease": 3147,
      "pet": 3148,
      "preser": 3149,
      "positions": 3150,
      "attribut": 3151,
      "cot": 3152,
      "sports": 3153,
      "logic": 3154,
      "imperial": 3155,
      "orph": 3156,
      "jean": 3157,
      "dio": 3158,
      "translation": 3159,
      "cold": 3160,
      "enem": 3161,
      "horse": 3162,
      "machin": 3163,
      "gard": 3164,
      "iraq": 3165,
      "speaking": 3166,
      "ales": 3167,
      "mathematical": 3168,
      "contrast": 3169,
      "bic": 3170,
      "bach": 3171,
      "none": 3172,
      "spread": 3173,
      "gene": 3174,
      "prefer": 3175,
      "serve": 3176,
      "afghan": 3177,
      "dun": 3178,
      "thin": 3179,
      "quarter": 3180,
      "jim": 3181,
      "stars": 3182,
      "string": 3183,
      "screen": 3184,
      "mom": 3185,
      "brief": 3186,
      "uit": 3187,
      "rian": 3188,
      "beyond": 3189,
      "medicine": 3190,
      "rative": 3191,
      "modi": 3192,
      "shall": 3193,
      "draw": 3194,
      "step": 3195,
      "province": 3196,
      "beth": 3197,
      "cab": 3198,
      "why": 3199,
      "promis": 3200,
      "plays": 3201,
      "sand": 3202,
      "reached": 3203,
      "sym": 3204,
      "allows": 3205,
      "dark": 3206,
      "remaining": 3207,
      "conservative": 3208,
      "administration": 3209,
      "feel": 3210,
      "provides": 3211,
      "financial": 3212,
      "nast": 3213,
      "onto": 3214,
      "notably": 3215,
      "zz": 3216,
      "format": 3217,
      "promo": 3218,
      "actual": 3219,
      "cise": 3220,
      "review": 3221,
      "doctr": 3222,
      "arrang": 3223,
      "alcohol": 3224,
      "amed": 3225,
      "norm": 3226,
      "frame": 3227,
      "distribution": 3228,
      "intelligence": 3229,
      "theories": 3230,
      "icated": 3231,
      "ador": 3232,
      "gian": 3233,
      "nas": 3234,
      "arms": 3235,
      "bob": 3236,
      "models": 3237,
      "astronom": 3238,
      "turned": 3239,
      "influenced": 3240,
      "pic": 3241,
      "distance": 3242,
      "algebra": 3243,
      "baby": 3244,
      "ja": 3245,
      "cham": 3246,
      "justice": 3247,
      "district": 3248,
      "ustr": 3249,
      "inal": 3250,
      "isa": 3251,
      "bear": 3252,
      "jected": 3253,
      "humans": 3254,
      "usal": 3255,
      "opposition": 3256,
      "contract": 3257,
      "victor": 3258,
      "favor": 3259,
      "department": 3260,
      "greece": 3261,
      "context": 3262,
      "solution": 3263,
      "wild": 3264,
      "berlin": 3265,
      "link": 3266,
      "phenomen": 3267,
      "hell": 3268,
      "needed": 3269,
      "stren": 3270,
      "dete": 3271,
      "emph": 3272,
      "universal": 3273,
      "pacific": 3274,
      "ita": 3275,
      "sell": 3276,
      "solid": 3277,
      "global": 3278,
      "pg": 3279,
      "stated": 3280,
      "communications": 3281,
      "kong": 3282,
      "affe": 3283,
      "brazil": 3284,
      "assu": 3285,
      "expected": 3286,
      "virgin": 3287,
      "previously": 3288,
      "executive": 3289,
      "advent": 3290,
      "completely": 3291,
      "gment": 3292,
      "uel": 3293,
      "aled": 3294,
      "vey": 3295,
      "dia": 3296,
      "wik": 3297,
      "bla": 3298,
      "lot": 3299,
      "oral": 3300,
      "hypo": 3301,
      "threat": 3302,
      "rob": 3303,
      "eria": 3304,
      "aging": 3305,
      "corn": 3306,
      "vote": 3307,
      "fy": 3308,
      "usage": 3309,
      "difference": 3310,
      "extremely": 3311,
      "candid": 3312,
      "graphics": 3313,
      "investig": 3314,
      "gro": 3315,
      "tes": 3316,
      "server": 3317,
      "newsp": 3318,
      "spell": 3319,
      "spoken": 3320,
      "mobile": 3321,
      "rd": 3322,
      "ux": 3323,
      "cycle": 3324,
      "contemporary": 3325,
      "appearance": 3326,
      "disci": 3327,
      "legend": 3328,
      "advanced": 3329,
      "edward": 3330,
      "newspap": 3331,
      "alone": 3332,
      "powerful": 3333,
      "generation": 3334,
      "crimin": 3335,
      "jam": 3336,
      "upper": 3337,
      "regional": 3338,
      "gul": 3339,
      "gall": 3340,
      "gives": 3341,
      "pects": 3342,
      "garian": 3343,
      "armed": 3344,
      "ara": 3345,
      "sort": 3346,
      "domain": 3347,
      "fici": 3348,
      "becoming": 3349,
      "purch": 3350,
      "wan": 3351,
      "foundation": 3352,
      "electronic": 3353,
      "poland": 3354,
      "ez": 3355,
      "fourth": 3356,
      "musician": 3357,
      "compil": 3358,
      "isode": 3359,
      "streng": 3360,
      "chos": 3361,
      "match": 3362,
      "critics": 3363,
      "nether": 3364,
      "ona": 3365,
      "fit": 3366,
      "portion": 3367,
      "controversi": 3368,
      "weapons": 3369,
      "prus": 3370,
      "zone": 3371,
      "chain": 3372,
      "episode": 3373,
      "forts": 3374,
      "argument": 3375,
      "incorpor": 3376,
      "refle": 3377,
      "glass": 3378,
      "positive": 3379,
      "training": 3380,
      "standards": 3381,
      "fred": 3382,
      "artist": 3383,
      "linear": 3384,
      "cs": 3385,
      "else": 3386,
      "oppos": 3387,
      "ado": 3388,
      "greatest": 3389,
      "application": 3390,
      "las": 3391,
      "ng": 3392,
      "pin": 3393,
      "vow": 3394,
      "featured": 3395,
      "protocol": 3396,
      "planet": 3397,
      "hours": 3398,
      "rou": 3399,
      "technical": 3400,
      "scholars": 3401,
      "giving": 3402,
      "inside": 3403,
      "reve": 3404,
      "theat": 3405,
      "initial": 3406,
      "unlike": 3407,
      "exchange": 3408,
      "estic": 3409,
      "dominant": 3410,
      "arabic": 3411,
      "heavi": 3412,
      "emphas": 3413,
      "heat": 3414,
      "describe": 3415,
      "block": 3416,
      "lyn": 3417,
      "opposed": 3418,
      "eties": 3419,
      "fare": 3420,
      "eds": 3421,
      "churches": 3422,
      "fans": 3423,
      "resulting": 3424,
      "responsible": 3425,
      "honor": 3426,
      "potential": 3427,
      "fundamental": 3428,
      "lee": 3429,
      "holds": 3430,
      "perman": 3431,
      "render": 3432,
      "cc": 3433,
      "smo": 3434,
      "beat": 3435,
      "continue": 3436,
      "recording": 3437,
      "oxford": 3438,
      "aught": 3439,
      "netherlands": 3440,
      "slight": 3441,
      "respective": 3442,
      "carried": 3443,
      "vary": 3444,
      "supreme": 3445,
      "orders": 3446,
      "arthur": 3447,
      "cracy": 3448,
      "reasons": 3449,
      "aff": 3450,
      "compet": 3451,
      "failed": 3452,
      "atures": 3453,
      "encies": 3454,
      "voice": 3455,
      "architecture": 3456,
      "ounds": 3457,
      "knight": 3458,
      "mers": 3459,
      "mentioned": 3460,
      "starting": 3461,
      "rout": 3462,
      "plor": 3463,
      "negative": 3464,
      "consci": 3465,
      "lives": 3466,
      "useful": 3467,
      "invas": 3468,
      "distinct": 3469,
      "islamic": 3470,
      "occasion": 3471,
      "fat": 3472,
      "stations": 3473,
      "composed": 3474,
      "marked": 3475,
      "mexico": 3476,
      "entially": 3477,
      "decision": 3478,
      "scottish": 3479,
      "explor": 3480,
      "agon": 3481,
      "geography": 3482,
      "somewhat": 3483,
      "ik": 3484,
      "scop": 3485,
      "harmon": 3486,
      "hands": 3487,
      "connected": 3488,
      "ered": 3489,
      "marine": 3490,
      "represented": 3491,
      "understanding": 3492,
      "vies": 3493,
      "ather": 3494,
      "crow": 3495,
      "drop": 3496,
      "cha": 3497,
      "friends": 3498,
      "declared": 3499,
      "pier": 3500,
      "activities": 3501,
      "materials": 3502,
      "families": 3503,
      "ee": 3504,
      "closed": 3505,
      "decided": 3506,
      "usual": 3507,
      "accoun": 3508,
      "perfect": 3509,
      "capac": 3510,
      "piece": 3511,
      "signal": 3512,
      "protection": 3513,
      "cant": 3514,
      "enn": 3515,
      "follows": 3516,
      "cambridge": 3517,
      "attempts": 3518,
      "pure": 3519,
      "indeed": 3520,
      "mouth": 3521,
      "stad": 3522,
      "encyclopedia": 3523,
      "icip": 3524,
      "terror": 3525,
      "dna": 3526,
      "hann": 3527,
      "comic": 3528,
      "erson": 3529,
      "plants": 3530,
      "chall": 3531,
      "opin": 3532,
      "circu": 3533,
      "growing": 3534,
      "paren": 3535,
      "anarch": 3536,
      "succeed": 3537,
      "possibly": 3538,
      "oppon": 3539,
      "unity": 3540,
      "goal": 3541,
      "classic": 3542,
      "zeal": 3543,
      "directed": 3544,
      "ises": 3545,
      "juda": 3546,
      "tional": 3547,
      "anc": 3548,
      "kson": 3549,
      "plane": 3550,
      "tou": 3551,
      "technique": 3552,
      "retain": 3553,
      "haz": 3554,
      "seems": 3555,
      "hur": 3556,
      "drive": 3557,
      "think": 3558,
      "alan": 3559,
      "apart": 3560,
      "aust": 3561,
      "christians": 3562,
      "fuel": 3563,
      "audio": 3564,
      "ders": 3565,
      "dynast": 3566,
      "anthro": 3567,
      "gon": 3568,
      "ctic": 3569,
      "firm": 3570,
      "easily": 3571,
      "iles": 3572,
      "otto": 3573,
      "doctor": 3574,
      "rick": 3575,
      "announced": 3576,
      "controlled": 3577,
      "pes": 3578,
      "proved": 3579,
      "palest": 3580,
      "academy": 3581,
      "assass": 3582,
      "improve": 3583,
      "extended": 3584,
      "identity": 3585,
      "principle": 3586,
      "equipment": 3587,
      "pitch": 3588,
      "alphabet": 3589,
      "marx": 3590,
      "graphy": 3591,
      "gate": 3592,
      "golden": 3593,
      "mere": 3594,
      "cards": 3595,
      "swe": 3596,
      "attacks": 3597,
      "choice": 3598,
      "communication": 3599,
      "compared": 3600,
      "causes": 3601,
      "cript": 3602,
      "feet": 3603,
      "spect": 3604,
      "hil": 3605,
      "income": 3606,
      "abol": 3607,
      "owned": 3608,
      "advoc": 3609,
      "ania": 3610,
      "reign": 3611,
      "mathematic": 3612,
      "reci": 3613,
      "anda": 3614,
      "medieval": 3615,
      "chemistry": 3616,
      "allowing": 3617,
      "asc": 3618,
      "orient": 3619,
      "organizations": 3620,
      "immediately": 3621,
      "exists": 3622,
      "cav": 3623,
      "theless": 3624,
      "poses": 3625,
      "efforts": 3626,
      "chance": 3627,
      "combat": 3628,
      "initially": 3629,
      "belong": 3630,
      "achie": 3631,
      "metro": 3632,
      "airport": 3633,
      "benef": 3634,
      "traditionally": 3635,
      "ican": 3636,
      "entry": 3637,
      "nothing": 3638,
      "presence": 3639,
      "equivalent": 3640,
      "visit": 3641,
      "combined": 3642,
      "drug": 3643,
      "agan": 3644,
      "paralle": 3645,
      "valley": 3646,
      "argued": 3647,
      "reaction": 3648,
      "background": 3649,
      "encour": 3650,
      "austria": 3651,
      "holid": 3652,
      "ulations": 3653,
      "classes": 3654,
      "achieve": 3655,
      "bush": 3656,
      "student": 3657,
      "tery": 3658,
      "domestic": 3659,
      "occurs": 3660,
      "insp": 3661,
      "gradu": 3662,
      "albert": 3663,
      "inet": 3664,
      "cused": 3665,
      "kel": 3666,
      "matic": 3667,
      "azz": 3668,
      "situation": 3669,
      "conscious": 3670,
      "ils": 3671,
      "fried": 3672,
      "kan": 3673,
      "forward": 3674,
      "dram": 3675,
      "tel": 3676,
      "differences": 3677,
      "request": 3678,
      "contact": 3679,
      "gri": 3680,
      "pit": 3681,
      "wid": 3682,
      "shif": 3683,
      "build": 3684,
      "priest": 3685,
      "incid": 3686,
      "presents": 3687,
      "behavior": 3688,
      "advantage": 3689,
      "replace": 3690,
      "shi": 3691,
      "officially": 3692,
      "recognized": 3693,
      "olymp": 3694,
      "tered": 3695,
      "meant": 3696,
      "portugu": 3697,
      "cting": 3698,
      "lock": 3699,
      "secretary": 3700,
      "fighting": 3701,
      "sides": 3702,
      "cart": 3703,
      "hong": 3704,
      "imal": 3705,
      "limit": 3706,
      "impact": 3707,
      "illustr": 3708,
      "device": 3709,
      "ries": 3710,
      "iza": 3711,
      "scene": 3712,
      "sites": 3713,
      "bled": 3714,
      "citizens": 3715,
      "yu": 3716,
      "expans": 3717,
      "respect": 3718,
      "moral": 3719,
      "lincol": 3720,
      "gained": 3721,
      "debate": 3722,
      "fixed": 3723,
      "hay": 3724,
      "qual": 3725,
      "ensity": 3726,
      "communities": 3727,
      "ruled": 3728,
      "unknown": 3729,
      "geograph": 3730,
      "victory": 3731,
      "avi": 3732,
      "drum": 3733,
      "atlantic": 3734,
      "portuguese": 3735,
      "lincoln": 3736,
      "artists": 3737,
      "finland": 3738,
      "infl": 3739,
      "understand": 3740,
      "wave": 3741,
      "clusive": 3742,
      "hydrogen": 3743,
      "cine": 3744,
      "isters": 3745,
      "determined": 3746,
      "sav": 3747,
      "epis": 3748,
      "wr": 3749,
      "conference": 3750,
      "diag": 3751,
      "worth": 3752,
      "physic": 3753,
      "inher": 3754,
      "vised": 3755,
      "competit": 3756,
      "judaism": 3757,
      "trial": 3758,
      "completed": 3759,
      "ski": 3760,
      "typical": 3761,
      "entirely": 3762,
      "saf": 3763,
      "neu": 3764,
      "teams": 3765,
      "chester": 3766,
      "laure": 3767,
      "liqu": 3768,
      "environmental": 3769,
      "instrument": 3770,
      "dream": 3771,
      "foun": 3772,
      "genetic": 3773,
      "begins": 3774,
      "politician": 3775,
      "gdp": 3776,
      "inno": 3777,
      "workers": 3778,
      "popularity": 3779,
      "inj": 3780,
      "writings": 3781,
      "ala": 3782,
      "otherwise": 3783,
      "statement": 3784,
      "crus": 3785,
      "turk": 3786,
      "datab": 3787,
      "consum": 3788,
      "ements": 3789,
      "geomet": 3790,
      "pick": 3791,
      "infant": 3792,
      "attention": 3793,
      "alli": 3794,
      "agreed": 3795,
      "rates": 3796,
      "scientists": 3797,
      "earliest": 3798,
      "controversy": 3799,
      "sover": 3800,
      "logical": 3801,
      "suggested": 3802,
      "containing": 3803,
      "figures": 3804,
      "usalem": 3805,
      "sem": 3806,
      "principles": 3807,
      "output": 3808,
      "angle": 3809,
      "leban": 3810,
      "sie": 3811,
      "jerusalem": 3812,
      "ads": 3813,
      "literary": 3814,
      "temple": 3815,
      "images": 3816,
      "pto": 3817,
      "americans": 3818,
      "jackson": 3819,
      "reduced": 3820,
      "sons": 3821,
      "winning": 3822,
      "argent": 3823,
      "supply": 3824,
      "structures": 3825,
      "prominent": 3826,
      "instruments": 3827,
      "toms": 3828,
      "bodies": 3829,
      "connection": 3830,
      "apollo": 3831,
      "fically": 3832,
      "mam": 3833,
      "increasingly": 3834,
      "bury": 3835,
      "hear": 3836,
      "phase": 3837,
      "split": 3838,
      "sax": 3839,
      "requires": 3840,
      "chair": 3841,
      "igration": 3842,
      "actors": 3843,
      "experiment": 3844,
      "dollar": 3845,
      "daily": 3846,
      "organized": 3847,
      "israeli": 3848,
      "wanted": 3849,
      "igan": 3850,
      "dur": 3851,
      "jones": 3852,
      "says": 3853,
      "bak": 3854,
      "frequency": 3855,
      "constitutional": 3856,
      "intellect": 3857,
      "dic": 3858,
      "neut": 3859,
      "crew": 3860,
      "discussion": 3861,
      "texts": 3862,
      "zealand": 3863,
      "astro": 3864,
      "specifically": 3865,
      "satell": 3866,
      "moment": 3867,
      "asian": 3868,
      "eral": 3869,
      "gia": 3870,
      "agu": 3871,
      "guard": 3872,
      "severe": 3873,
      "discovery": 3874,
      "expansion": 3875,
      "danger": 3876,
      "adult": 3877,
      "combination": 3878,
      "texas": 3879,
      "jazz": 3880,
      "yl": 3881,
      "description": 3882,
      "dynasty": 3883,
      "price": 3884,
      "depending": 3885,
      "senate": 3886,
      "respond": 3887,
      "inspired": 3888,
      "bond": 3889,
      "rh": 3890,
      "diam": 3891,
      "dipl": 3892,
      "harv": 3893,
      "importance": 3894,
      "criticism": 3895,
      "pray": 3896,
      "plate": 3897,
      "entered": 3898,
      "kur": 3899,
      "nt": 3900,
      "rab": 3901,
      "ump": 3902,
      "goes": 3903,
      "gosp": 3904,
      "violence": 3905,
      "semi": 3906,
      "lip": 3907,
      "joint": 3908,
      "opened": 3909,
      "destroyed": 3910,
      "vac": 3911,
      "bru": 3912,
      "carto": 3913,
      "sweden": 3914,
      "wear": 3915,
      "told": 3916,
      "boston": 3917,
      "invasion": 3918,
      "hat": 3919,
      "confeder": 3920,
      "runs": 3921,
      "devices": 3922,
      "estimated": 3923,
      "jav": 3924,
      "toward": 3925,
      "killing": 3926,
      "cool": 3927,
      "closely": 3928,
      "mountains": 3929,
      "rational": 3930,
      "slo": 3931,
      "owners": 3932,
      "door": 3933,
      "mythology": 3934,
      "height": 3935,
      "beaut": 3936,
      "juris": 3937,
      "afghanistan": 3938,
      "diplom": 3939,
      "inian": 3940,
      "removed": 3941,
      "consequ": 3942,
      "corporation": 3943,
      "iar": 3944,
      "imag": 3945,
      "conqu": 3946,
      "cris": 3947,
      "custom": 3948,
      "controversial": 3949,
      "bact": 3950,
      "cook": 3951,
      "aks": 3952,
      "helped": 3953,
      "asked": 3954,
      "visible": 3955,
      "truth": 3956,
      "quantum": 3957,
      "slightly": 3958,
      "tam": 3959,
      "ening": 3960,
      "correspon": 3961,
      "dictionary": 3962,
      "cze": 3963,
      "hence": 3964,
      "stay": 3965,
      "absol": 3966,
      "predict": 3967,
      "presidential": 3968,
      "attempted": 3969,
      "networ": 3970,
      "proced": 3971,
      "depict": 3972,
      "nit": 3973,
      "ored": 3974,
      "pping": 3975,
      "comics": 3976,
      "proof": 3977,
      "shire": 3978,
      "existing": 3979,
      "buildings": 3980,
      "copyright": 3981,
      "remo": 3982,
      "protestant": 3983,
      "ansas": 3984,
      "substant": 3985,
      "traditions": 3986,
      "asser": 3987,
      "auth": 3988,
      "plus": 3989,
      "luther": 3990,
      "rix": 3991,
      "fla": 3992,
      "exer": 3993,
      "lithu": 3994,
      "flor": 3995,
      "crown": 3996,
      "coach": 3997,
      "twenty": 3998,
      "evil": 3999,
      "cade": 4000,
      "defeated": 4001,
      "iced": 4002,
      "movies": 4003,
      "analy": 4004,
      "identified": 4005,
      "principal": 4006,
      "bian": 4007,
      "suppor": 4008,
      "thousands": 4009,
      "nis": 4010,
      "professor": 4011,
      "offered": 4012,
      "agriculture": 4013,
      "resulted": 4014,
      "occurred": 4015,
      "inated": 4016,
      "spiritual": 4017,
      "heavily": 4018,
      "argue": 4019,
      "crime": 4020,
      "factor": 4021,
      "clock": 4022,
      "ancest": 4023,
      "label": 4024,
      "nan": 4025,
      "atmos": 4026,
      "aspects": 4027,
      "inton": 4028,
      "governments": 4029,
      "bun": 4030,
      "damage": 4031,
      "leadership": 4032,
      "ibm": 4033,
      "austrian": 4034,
      "affairs": 4035,
      "vice": 4036,
      "fictional": 4037,
      "cules": 4038,
      "caes": 4039,
      "factors": 4040,
      "historic": 4041,
      "watch": 4042,
      "chest": 4043,
      "composition": 4044,
      "guar": 4045,
      "crete": 4046,
      "traf": 4047,
      "novels": 4048,
      "rey": 4049,
      "manner": 4050,
      "destru": 4051,
      "category": 4052,
      "pian": 4053,
      "maced": 4054,
      "reality": 4055,
      "athe": 4056,
      "pak": 4057,
      "leaving": 4058,
      "construct": 4059,
      "eliza": 4060,
      "aph": 4061,
      "shap": 4062,
      "effort": 4063,
      "wikip": 4064,
      "canon": 4065,
      "doctrine": 4066,
      "andon": 4067,
      "disk": 4068,
      "switch": 4069,
      "hungary": 4070,
      "algorithm": 4071,
      "inhabit": 4072,
      "captain": 4073,
      "competition": 4074,
      "bli": 4075,
      "lists": 4076,
      "root": 4077,
      "strugg": 4078,
      "strip": 4079,
      "reports": 4080,
      "scholar": 4081,
      "soldiers": 4082,
      "kee": 4083,
      "origins": 4084,
      "assum": 4085,
      "fear": 4086,
      "territories": 4087,
      "bern": 4088,
      "statistics": 4089,
      "ori": 4090,
      "manif": 4091,
      "situ": 4092,
      "dry": 4093,
      "edge": 4094,
      "formula": 4095,
      "pages": 4096,
      "currency": 4097,
      "donald": 4098,
      "normally": 4099,
      "rum": 4100,
      "sar": 4101,
      "theorem": 4102,
      "bits": 4103,
      "flat": 4104,
      "kins": 4105,
      "hou": 4106,
      "progress": 4107,
      "nazi": 4108,
      "economics": 4109,
      "picture": 4110,
      "permanent": 4111,
      "democracy": 4112,
      "vs": 4113,
      "topics": 4114,
      "opening": 4115,
      "substantial": 4116,
      "athen": 4117,
      "pent": 4118,
      "staff": 4119,
      "cultures": 4120,
      "concepts": 4121,
      "forum": 4122,
      "ishes": 4123,
      "tried": 4124,
      "abandon": 4125,
      "plot": 4126,
      "eks": 4127,
      "spent": 4128,
      "testament": 4129,
      "interpretation": 4130,
      "wikipedia": 4131,
      "stable": 4132,
      "parad": 4133,
      "jordan": 4134,
      "gods": 4135,
      "negot": 4136,
      "tower": 4137,
      "valid": 4138,
      "christmas": 4139,
      "citizen": 4140,
      "pronounced": 4141,
      "creating": 4142,
      "malay": 4143,
      "ighter": 4144,
      "kal": 4145,
      "rhy": 4146,
      "enjoy": 4147,
      "bio": 4148,
      "annual": 4149,
      "continues": 4150,
      "discipl": 4151,
      "ulate": 4152,
      "grew": 4153,
      "presented": 4154,
      "columbia": 4155,
      "beliefs": 4156,
      "false": 4157,
      "hes": 4158,
      "compos": 4159,
      "bah": 4160,
      "learning": 4161,
      "subsequent": 4162,
      "bron": 4163,
      "details": 4164,
      "kid": 4165,
      "gent": 4166,
      "kers": 4167,
      "rose": 4168,
      "defeat": 4169,
      "ili": 4170,
      "hyper": 4171,
      "unders": 4172,
      "risk": 4173,
      "mud": 4174,
      "leave": 4175,
      "decre": 4176,
      "institutions": 4177,
      "alexand": 4178,
      "parents": 4179,
      "expression": 4180,
      "hardware": 4181,
      "traffic": 4182,
      "mist": 4183,
      "mous": 4184,
      "linux": 4185,
      "practical": 4186,
      "administrative": 4187,
      "oul": 4188,
      "goods": 4189,
      "involve": 4190,
      "subsequently": 4191,
      "oth": 4192,
      "plicit": 4193,
      "heaven": 4194,
      "expressed": 4195,
      "theast": 4196,
      "pieces": 4197,
      "census": 4198,
      "dates": 4199,
      "fash": 4200,
      "alban": 4201,
      "editor": 4202,
      "genes": 4203,
      "bt": 4204,
      "dv": 4205,
      "kat": 4206,
      "cos": 4207,
      "ami": 4208,
      "processes": 4209,
      "appropri": 4210,
      "eye": 4211,
      "message": 4212,
      "chosen": 4213,
      "aly": 4214,
      "tribes": 4215,
      "machines": 4216,
      "fc": 4217,
      "jon": 4218,
      "vast": 4219,
      "marks": 4220,
      "decades": 4221,
      "bang": 4222,
      "isol": 4223,
      "constructed": 4224,
      "angeles": 4225,
      "meeting": 4226,
      "aqu": 4227,
      "omorph": 4228,
      "fantasy": 4229,
      "veget": 4230,
      "igen": 4231,
      "exclusive": 4232,
      "premi": 4233,
      "movements": 4234,
      "orbit": 4235,
      "icon": 4236,
      "archae": 4237,
      "turning": 4238,
      "morph": 4239,
      "mental": 4240,
      "answer": 4241,
      "judic": 4242,
      "initi": 4243,
      "founder": 4244,
      "throw": 4245,
      "deriv": 4246,
      "roughly": 4247,
      "cars": 4248,
      "ordered": 4249,
      "translated": 4250,
      "faces": 4251,
      "regarding": 4252,
      "electro": 4253,
      "declar": 4254,
      "mixed": 4255,
      "alleged": 4256,
      "cking": 4257,
      "otic": 4258,
      "display": 4259,
      "oxy": 4260,
      "atoms": 4261,
      "fet": 4262,
      "hunt": 4263,
      "attach": 4264,
      "questions": 4265,
      "houses": 4266,
      "ung": 4267,
      "attract": 4268,
      "historians": 4269,
      "fame": 4270,
      "gel": 4271,
      "files": 4272,
      "patri": 4273,
      "policies": 4274,
      "absolute": 4275,
      "compat": 4276,
      "steel": 4277,
      "hindu": 4278,
      "raised": 4279,
      "ean": 4280,
      "jpg": 4281,
      "tz": 4282,
      "input": 4283,
      "aka": 4284,
      "carol": 4285,
      "towns": 4286,
      "want": 4287,
      "easy": 4288,
      "observed": 4289,
      "vant": 4290,
      "atomic": 4291,
      "bf": 4292,
      "sco": 4293,
      "avis": 4294,
      "bomb": 4295,
      "swedish": 4296,
      "ull": 4297,
      "shape": 4298,
      "strate": 4299,
      "considerable": 4300,
      "formerly": 4301,
      "brothers": 4302,
      "cow": 4303,
      "acting": 4304,
      "philosopher": 4305,
      "femin": 4306,
      "chapter": 4307,
      "resistance": 4308,
      "database": 4309,
      "sab": 4310,
      "chron": 4311,
      "receive": 4312,
      "occupied": 4313,
      "ern": 4314,
      "advert": 4315,
      "ologist": 4316,
      "capable": 4317,
      "mort": 4318,
      "extin": 4319,
      "processing": 4320,
      "shortly": 4321,
      "pakistan": 4322,
      "alum": 4323,
      "consu": 4324,
      "chronic": 4325,
      "studied": 4326,
      "extent": 4327,
      "kr": 4328,
      "ambig": 4329,
      "revolutionary": 4330,
      "photograph": 4331,
      "ordinary": 4332,
      "hr": 4333,
      "greatly": 4334,
      "proceed": 4335,
      "sched": 4336,
      "sister": 4337,
      "som": 4338,
      "iled": 4339,
      "settlement": 4340,
      "anni": 4341,
      "mn": 4342,
      "enes": 4343,
      "mount": 4344,
      "transportation": 4345,
      "bid": 4346,
      "blues": 4347,
      "equation": 4348,
      "characteristics": 4349,
      "railway": 4350,
      "parallel": 4351,
      "gil": 4352,
      "pool": 4353,
      "phi": 4354,
      "persian": 4355,
      "hosp": 4356,
      "magn": 4357,
      "municip": 4358,
      "gressive": 4359,
      "criminal": 4360,
      "needs": 4361,
      "ij": 4362,
      "rod": 4363,
      "const": 4364,
      "biology": 4365,
      "castle": 4366,
      "tact": 4367,
      "ota": 4368,
      "preci": 4369,
      "continental": 4370,
      "failure": 4371,
      "respectively": 4372,
      "eign": 4373,
      "reput": 4374,
      "johnson": 4375,
      "projects": 4376,
      "launched": 4377,
      "fashion": 4378,
      "holding": 4379,
      "sovereign": 4380,
      "seat": 4381,
      "fox": 4382,
      "symbols": 4383,
      "representation": 4384,
      "snow": 4385,
      "wy": 4386,
      "ologies": 4387,
      "peoples": 4388,
      "sul": 4389,
      "divine": 4390,
      "wides": 4391,
      "clim": 4392,
      "prep": 4393,
      "minutes": 4394,
      "poll": 4395,
      "schem": 4396,
      "naval": 4397,
      "philosophical": 4398,
      "twel": 4399,
      "entertain": 4400,
      "rence": 4401,
      "supposed": 4402,
      "install": 4403,
      "medium": 4404,
      "straight": 4405,
      "seats": 4406,
      "exhib": 4407,
      "awarded": 4408,
      "yan": 4409,
      "reven": 4410,
      "solar": 4411,
      "glas": 4412,
      "bure": 4413,
      "chip": 4414,
      "abilities": 4415,
      "neither": 4416,
      "newton": 4417,
      "narrow": 4418,
      "bab": 4419,
      "hair": 4420,
      "drawn": 4421,
      "circle": 4422,
      "grant": 4423,
      "refused": 4424,
      "academic": 4425,
      "satellite": 4426,
      "negoti": 4427,
      "zen": 4428,
      "iger": 4429,
      "index": 4430,
      "eg": 4431,
      "arrest": 4432,
      "doing": 4433,
      "wales": 4434,
      "satis": 4435,
      "itarian": 4436,
      "felt": 4437,
      "dess": 4438,
      "whereas": 4439,
      "describes": 4440,
      "worship": 4441,
      "register": 4442,
      "darwin": 4443,
      "layer": 4444,
      "penn": 4445,
      "speakers": 4446,
      "finding": 4447,
      "korea": 4448,
      "defend": 4449,
      "iny": 4450,
      "ceived": 4451,
      "grammar": 4452,
      "comedy": 4453,
      "dot": 4454,
      "gif": 4455,
      "nut": 4456,
      "noun": 4457,
      "indones": 4458,
      "persons": 4459,
      "holly": 4460,
      "aces": 4461,
      "desert": 4462,
      "titles": 4463,
      "drugs": 4464,
      "gay": 4465,
      "trig": 4466,
      "genre": 4467,
      "train": 4468,
      "myster": 4469,
      "particles": 4470,
      "battles": 4471,
      "itzer": 4472,
      "storage": 4473,
      "chor": 4474,
      "iah": 4475,
      "producer": 4476,
      "jacob": 4477,
      "fly": 4478,
      "lex": 4479,
      "strength": 4480,
      "occasionally": 4481,
      "degre": 4482,
      "ante": 4483,
      "arith": 4484,
      "purposes": 4485,
      "colonial": 4486,
      "enemy": 4487,
      "oured": 4488,
      "issued": 4489,
      "victim": 4490,
      "bann": 4491,
      "lum": 4492,
      "affect": 4493,
      "anything": 4494,
      "denot": 4495,
      "ios": 4496,
      "ena": 4497,
      "uded": 4498,
      "mond": 4499,
      "repeated": 4500,
      "electrical": 4501,
      "maps": 4502,
      "cock": 4503,
      "preced": 4504,
      "fing": 4505,
      "adapt": 4506,
      "plans": 4507,
      "courts": 4508,
      "pictures": 4509,
      "bw": 4510,
      "kir": 4511,
      "andrew": 4512,
      "binary": 4513,
      "dated": 4514,
      "sip": 4515,
      "weeks": 4516,
      "saying": 4517,
      "indo": 4518,
      "artific": 4519,
      "radical": 4520,
      "inhabitants": 4521,
      "gol": 4522,
      "village": 4523,
      "colour": 4524,
      "selected": 4525,
      "festival": 4526,
      "alliance": 4527,
      "kent": 4528,
      "accid": 4529,
      "huge": 4530,
      "massive": 4531,
      "electricity": 4532,
      "dialects": 4533,
      "oct": 4534,
      "sector": 4535,
      "granted": 4536,
      "symp": 4537,
      "scand": 4538,
      "osex": 4539,
      "radiation": 4540,
      "wait": 4541,
      "michigan": 4542,
      "resem": 4543,
      "fifth": 4544,
      "degrees": 4545,
      "aristo": 4546,
      "logo": 4547,
      "magnetic": 4548,
      "pread": 4549,
      "gather": 4550,
      "cers": 4551,
      "kg": 4552,
      "instru": 4553,
      "essential": 4554,
      "eland": 4555,
      "descend": 4556,
      "authors": 4557,
      "widespread": 4558,
      "visual": 4559,
      "determ": 4560,
      "elizabeth": 4561,
      "aci": 4562,
      "shell": 4563,
      "udes": 4564,
      "producing": 4565,
      "babylon": 4566,
      "newspaper": 4567,
      "gla": 4568,
      "commonwealth": 4569,
      "legislative": 4570,
      "random": 4571,
      "determine": 4572,
      "density": 4573,
      "pir": 4574,
      "ception": 4575,
      "achieved": 4576,
      "hoc": 4577,
      "inner": 4578,
      "alty": 4579,
      "serving": 4580,
      "similarly": 4581,
      "nucle": 4582,
      "fine": 4583,
      "someone": 4584,
      "freder": 4585,
      "hitler": 4586,
      "bag": 4587,
      "zant": 4588,
      "influential": 4589,
      "homosex": 4590,
      "ias": 4591,
      "sle": 4592,
      "ched": 4593,
      "dispute": 4594,
      "supporters": 4595,
      "haw": 4596,
      "contest": 4597,
      "paid": 4598,
      "explan": 4599,
      "throne": 4600,
      "girl": 4601,
      "fasc": 4602,
      "rivers": 4603,
      "setting": 4604,
      "awards": 4605,
      "jr": 4606,
      "pd": 4607,
      "xx": 4608,
      "deliver": 4609,
      "witness": 4610,
      "gly": 4611,
      "bean": 4612,
      "measures": 4613,
      "yo": 4614,
      "boys": 4615,
      "worldwide": 4616,
      "viewed": 4617,
      "coordin": 4618,
      "feed": 4619,
      "linked": 4620,
      "ideal": 4621,
      "rison": 4622,
      "teaching": 4623,
      "favour": 4624,
      "manufactur": 4625,
      "gospel": 4626,
      "ras": 4627,
      "gulf": 4628,
      "formally": 4629,
      "hungarian": 4630,
      "apparently": 4631,
      "ole": 4632,
      "yell": 4633,
      "universities": 4634,
      "weapon": 4635,
      "cable": 4636,
      "fro": 4637,
      "providing": 4638,
      "clearly": 4639,
      "instruct": 4640,
      "infinite": 4641,
      "superi": 4642,
      "pione": 4643,
      "opport": 4644,
      "publication": 4645,
      "suffered": 4646,
      "phrase": 4647,
      "stress": 4648,
      "crisis": 4649,
      "fres": 4650,
      "tood": 4651,
      "conson": 4652,
      "precise": 4653,
      "understood": 4654,
      "cm": 4655,
      "safe": 4656,
      "continuous": 4657,
      "interface": 4658,
      "ibn": 4659,
      "html": 4660,
      "liquid": 4661,
      "nfl": 4662,
      "yer": 4663,
      "aling": 4664,
      "prin": 4665,
      "ario": 4666,
      "listed": 4667,
      "agricultural": 4668,
      "hid": 4669,
      "denmark": 4670,
      "gang": 4671,
      "err": 4672,
      "jection": 4673,
      "oldest": 4674,
      "treated": 4675,
      "aware": 4676,
      "aria": 4677,
      "strateg": 4678,
      "ultimately": 4679,
      "contained": 4680,
      "nevertheless": 4681,
      "dale": 4682,
      "prohib": 4683,
      "abst": 4684,
      "iff": 4685,
      "fellow": 4686,
      "settled": 4687,
      "surrounding": 4688,
      "safety": 4689,
      "bis": 4690,
      "hag": 4691,
      "thetic": 4692,
      "byzant": 4693,
      "commander": 4694,
      "celtic": 4695,
      "recomm": 4696,
      "ministers": 4697,
      "danish": 4698,
      "molecules": 4699,
      "mong": 4700,
      "comb": 4701,
      "guine": 4702,
      "disc": 4703,
      "maximum": 4704,
      "illa": 4705,
      "practices": 4706,
      "rics": 4707,
      "absor": 4708,
      "enger": 4709,
      "keyboard": 4710,
      "republican": 4711,
      "employment": 4712,
      "izes": 4713,
      "showing": 4714,
      "abra": 4715,
      "clean": 4716,
      "talk": 4717,
      "classification": 4718,
      "uge": 4719,
      "advance": 4720,
      "exception": 4721,
      "shad": 4722,
      "diff": 4723,
      "oxide": 4724,
      "excl": 4725,
      "ologists": 4726,
      "supp": 4727,
      "secondary": 4728,
      "distinction": 4729,
      "expect": 4730,
      "metric": 4731,
      "pical": 4732,
      "bos": 4733,
      "carl": 4734,
      "computing": 4735,
      "inn": 4736,
      "goth": 4737,
      "everything": 4738,
      "reduce": 4739,
      "agency": 4740,
      "colla": 4741,
      "akh": 4742,
      "virginia": 4743,
      "sought": 4744,
      "lah": 4745,
      "heim": 4746,
      "biological": 4747,
      "valu": 4748,
      "tos": 4749,
      "mechanics": 4750,
      "taught": 4751,
      "icide": 4752,
      "neighbor": 4753,
      "bwv": 4754,
      "shared": 4755,
      "engines": 4756,
      "cros": 4757,
      "manager": 4758,
      "molecular": 4759,
      "dc": 4760,
      "ying": 4761,
      "urally": 4762,
      "shoot": 4763,
      "captured": 4764,
      "clar": 4765,
      "religions": 4766,
      "palace": 4767,
      "strongly": 4768,
      "opposite": 4769,
      "accounts": 4770,
      "nish": 4771,
      "store": 4772,
      "invented": 4773,
      "sciences": 4774,
      "daniel": 4775,
      "bottom": 4776,
      "egyptian": 4777,
      "resolution": 4778,
      "capacity": 4779,
      "pel": 4780,
      "inqu": 4781,
      "arrow": 4782,
      "unable": 4783,
      "cosm": 4784,
      "judge": 4785,
      "lady": 4786,
      "brow": 4787,
      "iom": 4788,
      "uck": 4789,
      "iana": 4790,
      "magic": 4791,
      "showed": 4792,
      "heads": 4793,
      "historically": 4794,
      "employed": 4795,
      "components": 4796,
      "chamber": 4797,
      "theatre": 4798,
      "lag": 4799,
      "finished": 4800,
      "interesting": 4801,
      "muslims": 4802,
      "stadium": 4803,
      "vian": 4804,
      "silver": 4805,
      "cen": 4806,
      "arbit": 4807,
      "trees": 4808,
      "planned": 4809,
      "intellectual": 4810,
      "represents": 4811,
      "ura": 4812,
      "detailed": 4813,
      "vinces": 4814,
      "inois": 4815,
      "gender": 4816,
      "caesar": 4817,
      "cerem": 4818,
      "changing": 4819,
      "involves": 4820,
      "tools": 4821,
      "secut": 4822,
      "unci": 4823,
      "shop": 4824,
      "profit": 4825,
      "license": 4826,
      "francisco": 4827,
      "expanded": 4828,
      "circuit": 4829,
      "ares": 4830,
      "tai": 4831,
      "galax": 4832,
      "rejected": 4833,
      "leges": 4834,
      "documents": 4835,
      "printed": 4836,
      "rarely": 4837,
      "succeeded": 4838,
      "lewis": 4839,
      "illinois": 4840,
      "discover": 4841,
      "networks": 4842,
      "surpr": 4843,
      "civilization": 4844,
      "indicate": 4845,
      "championship": 4846,
      "och": 4847,
      "wed": 4848,
      "impossible": 4849,
      "dal": 4850,
      "route": 4851,
      "wrong": 4852,
      "destruction": 4853,
      "culation": 4854,
      "pton": 4855,
      "check": 4856,
      "enna": 4857,
      "logy": 4858,
      "essentially": 4859,
      "theme": 4860,
      "chile": 4861,
      "revi": 4862,
      "provinces": 4863,
      "rising": 4864,
      "budget": 4865,
      "kaz": 4866,
      "coding": 4867,
      "managed": 4868,
      "ratio": 4869,
      "bling": 4870,
      "insur": 4871,
      "kab": 4872,
      "trust": 4873,
      "hollywood": 4874,
      "yellow": 4875,
      "superior": 4876,
      "job": 4877,
      "bands": 4878,
      "ativity": 4879,
      "vector": 4880,
      "iga": 4881,
      "accomp": 4882,
      "dialect": 4883,
      "iop": 4884,
      "kra": 4885,
      "institution": 4886,
      "prophe": 4887,
      "looking": 4888,
      "amaz": 4889,
      "societies": 4890,
      "calvin": 4891,
      "oxygen": 4892,
      "obl": 4893,
      "inations": 4894,
      "poetry": 4895,
      "affected": 4896,
      "turkey": 4897,
      "investment": 4898,
      "turkish": 4899,
      "ching": 4900,
      "lux": 4901,
      "sufficient": 4902,
      "portray": 4903,
      "fleet": 4904,
      "harvard": 4905,
      "ugh": 4906,
      "merely": 4907,
      "bureau": 4908,
      "iro": 4909,
      "oney": 4910,
      "authorities": 4911,
      "studio": 4912,
      "bac": 4913,
      "tren": 4914,
      "transition": 4915,
      "heard": 4916,
      "ained": 4917,
      "fought": 4918,
      "colonies": 4919,
      "rated": 4920,
      "oud": 4921,
      "cycl": 4922,
      "developing": 4923,
      "pursu": 4924,
      "depression": 4925,
      "processor": 4926,
      "ottoman": 4927,
      "dj": 4928,
      "ule": 4929,
      "fras": 4930,
      "navig": 4931,
      "occupation": 4932,
      "entit": 4933,
      "admir": 4934,
      "divisions": 4935,
      "aux": 4936,
      "itors": 4937,
      "exports": 4938,
      "refuge": 4939,
      "exactly": 4940,
      "candidate": 4941,
      "ato": 4942,
      "celer": 4943,
      "johann": 4944,
      "calls": 4945,
      "iling": 4946,
      "ishing": 4947,
      "kenned": 4948,
      "interests": 4949,
      "roads": 4950,
      "autonom": 4951,
      "java": 4952,
      "orchest": 4953,
      "dos": 4954,
      "hammad": 4955,
      "croat": 4956,
      "publishing": 4957,
      "assumed": 4958,
      "ye": 4959,
      "lem": 4960,
      "elli": 4961,
      "directory": 4962,
      "fies": 4963,
      "stalin": 4964,
      "lebanon": 4965,
      "onian": 4966,
      "really": 4967,
      "clinton": 4968,
      "crash": 4969,
      "pati": 4970,
      "successfully": 4971,
      "notation": 4972,
      "tall": 4973,
      "inth": 4974,
      "explicit": 4975,
      "cler": 4976,
      "eat": 4977,
      "trou": 4978,
      "banks": 4979,
      "keeping": 4980,
      "accurate": 4981,
      "twelve": 4982,
      "fert": 4983,
      "iction": 4984,
      "dedicated": 4985,
      "pressed": 4986,
      "modified": 4987,
      "strategy": 4988,
      "kim": 4989,
      "ua": 4990,
      "significantly": 4991,
      "artificial": 4992,
      "instruction": 4993,
      "cric": 4994,
      "dem": 4995,
      "maur": 4996,
      "aud": 4997,
      "forming": 4998,
      "collabor": 4999,
      "naz": 5000,
      "designs": 5001,
      "youth": 5002,
      "equations": 5003,
      "germanic": 5004,
      "bird": 5005,
      "quarters": 5006,
      "obtained": 5007,
      "seas": 5008,
      "florida": 5009,
      "gur": 5010,
      "burgh": 5011,
      "define": 5012,
      "satur": 5013,
      "petro": 5014,
      "anton": 5015,
      "soul": 5016,
      "variations": 5017,
      "dual": 5018,
      "ogical": 5019,
      "anthropol": 5020,
      "semit": 5021,
      "overall": 5022,
      "broken": 5023,
      "agent": 5024,
      "effici": 5025,
      "charged": 5026,
      "brian": 5027,
      "eyes": 5028,
      "quad": 5029,
      "socialist": 5030,
      "mechanical": 5031,
      "zes": 5032,
      "spin": 5033,
      "interview": 5034,
      "maintained": 5035,
      "mongol": 5036,
      "vity": 5037,
      "verb": 5038,
      "eva": 5039,
      "variant": 5040,
      "goddess": 5041,
      "representatives": 5042,
      "sales": 5043,
      "protect": 5044,
      "devot": 5045,
      "arrived": 5046,
      "ruth": 5047,
      "philosophers": 5048,
      "portugal": 5049,
      "items": 5050,
      "cancer": 5051,
      "guinea": 5052,
      "shel": 5053,
      "efficient": 5054,
      "merch": 5055,
      "improved": 5056,
      "virtual": 5057,
      "fen": 5058,
      "vul": 5059,
      "correspond": 5060,
      "fortun": 5061,
      "featuring": 5062,
      "score": 5063,
      "uset": 5064,
      "causing": 5065,
      "broke": 5066,
      "responsib": 5067,
      "protein": 5068,
      "aded": 5069,
      "pleas": 5070,
      "membership": 5071,
      "vietnam": 5072,
      "extension": 5073,
      "korean": 5074,
      "drew": 5075,
      "lers": 5076,
      "adding": 5077,
      "officer": 5078,
      "psychology": 5079,
      "physicist": 5080,
      "forth": 5081,
      "mars": 5082,
      "birds": 5083,
      "penins": 5084,
      "obvious": 5085,
      "identify": 5086,
      "inary": 5087,
      "males": 5088,
      "saints": 5089,
      "minority": 5090,
      "teenth": 5091,
      "mathbf": 5092,
      "bloc": 5093,
      "sant": 5094,
      "iment": 5095,
      "servers": 5096,
      "necessarily": 5097,
      "inflation": 5098,
      "homosexual": 5099,
      "db": 5100,
      "zer": 5101,
      "compre": 5102,
      "defence": 5103,
      "dominated": 5104,
      "licens": 5105,
      "guns": 5106,
      "uten": 5107,
      "rapidly": 5108,
      "revealed": 5109,
      "flying": 5110,
      "fab": 5111,
      "kansas": 5112,
      "ois": 5113,
      "propos": 5114,
      "join": 5115,
      "voy": 5116,
      "codes": 5117,
      "achuset": 5118,
      "analog": 5119,
      "stro": 5120,
      "twice": 5121,
      "adel": 5122,
      "fruit": 5123,
      "davis": 5124,
      "anto": 5125,
      "beck": 5126,
      "bright": 5127,
      "stephen": 5128,
      "musicians": 5129,
      "existed": 5130,
      "massachuset": 5131,
      "roots": 5132,
      "clust": 5133,
      "apply": 5134,
      "recognition": 5135,
      "distributed": 5136,
      "var": 5137,
      "manus": 5138,
      "partners": 5139,
      "elled": 5140,
      "compres": 5141,
      "conventional": 5142,
      "massachusetts": 5143,
      "altar": 5144,
      "chess": 5145,
      "simon": 5146,
      "continent": 5147,
      "wheel": 5148,
      "husband": 5149,
      "bly": 5150,
      "selection": 5151,
      "cabinet": 5152,
      "incorporated": 5153,
      "cited": 5154,
      "dick": 5155,
      "fid": 5156,
      "colony": 5157,
      "tribut": 5158,
      "establishment": 5159,
      "separated": 5160,
      "opinion": 5161,
      "resto": 5162,
      "cuba": 5163,
      "oto": 5164,
      "survey": 5165,
      "adams": 5166,
      "coalition": 5167,
      "consciousness": 5168,
      "ique": 5169,
      "rival": 5170,
      "fee": 5171,
      "carib": 5172,
      "periods": 5173,
      "suggests": 5174,
      "appropriate": 5175,
      "alfred": 5176,
      "elimin": 5177,
      "mainstream": 5178,
      "graphic": 5179,
      "jersey": 5180,
      "reputation": 5181,
      "weather": 5182,
      "brid": 5183,
      "literally": 5184,
      "coup": 5185,
      "onso": 5186,
      "rol": 5187,
      "beach": 5188,
      "signs": 5189,
      "expensive": 5190,
      "entitled": 5191,
      "athan": 5192,
      "balance": 5193,
      "subjects": 5194,
      "moore": 5195,
      "strike": 5196,
      "nickn": 5197,
      "younger": 5198,
      "sic": 5199,
      "contra": 5200,
      "howard": 5201,
      "ranean": 5202,
      "tourism": 5203,
      "lords": 5204,
      "franklin": 5205,
      "devil": 5206,
      "legit": 5207,
      "gium": 5208,
      "tag": 5209,
      "lakes": 5210,
      "publications": 5211,
      "sylvan": 5212,
      "tons": 5213,
      "organic": 5214,
      "passing": 5215,
      "decline": 5216,
      "audience": 5217,
      "neutral": 5218,
      "hang": 5219,
      "boat": 5220,
      "syria": 5221,
      "stands": 5222,
      "samuel": 5223,
      "ethiop": 5224,
      "sounds": 5225,
      "contributed": 5226,
      "effectively": 5227,
      "filled": 5228,
      "icts": 5229,
      "beer": 5230,
      "anne": 5231,
      "abs": 5232,
      "brevi": 5233,
      "opera": 5234,
      "adap": 5235,
      "concerning": 5236,
      "painter": 5237,
      "physi": 5238,
      "wart": 5239,
      "acceler": 5240,
      "organisms": 5241,
      "cision": 5242,
      "choose": 5243,
      "sections": 5244,
      "diet": 5245,
      "historian": 5246,
      "concerned": 5247,
      "abraham": 5248,
      "allied": 5249,
      "vehicle": 5250,
      "mathematician": 5251,
      "czech": 5252,
      "vor": 5253,
      "error": 5254,
      "executed": 5255,
      "rific": 5256,
      "bibl": 5257,
      "romans": 5258,
      "frequent": 5259,
      "fier": 5260,
      "complic": 5261,
      "matters": 5262,
      "patent": 5263,
      "recipi": 5264,
      "hockey": 5265,
      "shor": 5266,
      "monop": 5267,
      "assigned": 5268,
      "breed": 5269,
      "albums": 5270,
      "kennedy": 5271,
      "cad": 5272,
      "dish": 5273,
      "belgium": 5274,
      "atmosphere": 5275,
      "cp": 5276,
      "committed": 5277,
      "vehicles": 5278,
      "iring": 5279,
      "spot": 5280,
      "guid": 5281,
      "particle": 5282,
      "trying": 5283,
      "federation": 5284,
      "evolved": 5285,
      "attributed": 5286,
      "sop": 5287,
      "compounds": 5288,
      "draft": 5289,
      "ministry": 5290,
      "learn": 5291,
      "familiar": 5292,
      "hundreds": 5293,
      "dvd": 5294,
      "rice": 5295,
      "hawa": 5296,
      "placing": 5297,
      "sels": 5298,
      "underground": 5299,
      "bibli": 5300,
      "tol": 5301,
      "georgia": 5302,
      "axiom": 5303,
      "temperatures": 5304,
      "judicial": 5305,
      "rings": 5306,
      "pole": 5307,
      "iti": 5308,
      "nostic": 5309,
      "blin": 5310,
      "gency": 5311,
      "functional": 5312,
      "relationships": 5313,
      "rein": 5314,
      "drawing": 5315,
      "officials": 5316,
      "gab": 5317,
      "guy": 5318,
      "prices": 5319,
      "hole": 5320,
      "instein": 5321,
      "jet": 5322,
      "sight": 5323,
      "intelligent": 5324,
      "residents": 5325,
      "pens": 5326,
      "earl": 5327,
      "attle": 5328,
      "selling": 5329,
      "horiz": 5330,
      "styles": 5331,
      "rank": 5332,
      "gem": 5333,
      "uted": 5334,
      "variable": 5335,
      "nearby": 5336,
      "falls": 5337,
      "possibility": 5338,
      "patterns": 5339,
      "faster": 5340,
      "clin": 5341,
      "sche": 5342,
      "identical": 5343,
      "hier": 5344,
      "cessive": 5345,
      "leads": 5346,
      "karl": 5347,
      "amounts": 5348,
      "wiki": 5349,
      "blind": 5350,
      "supporting": 5351,
      "markets": 5352,
      "educational": 5353,
      "abstract": 5354,
      "conquest": 5355,
      "mediter": 5356,
      "classified": 5357,
      "hospital": 5358,
      "hans": 5359,
      "remember": 5360,
      "foss": 5361,
      "elev": 5362,
      "warfare": 5363,
      "basket": 5364,
      "credited": 5365,
      "manuscript": 5366,
      "tone": 5367,
      "meters": 5368,
      "renamed": 5369,
      "propag": 5370,
      "confir": 5371,
      "apy": 5372,
      "spaces": 5373,
      "visited": 5374,
      "memorial": 5375,
      "successor": 5376,
      "involving": 5377,
      "brun": 5378,
      "regime": 5379,
      "officers": 5380,
      "russell": 5381,
      "cuis": 5382,
      "bene": 5383,
      "lunar": 5384,
      "sylvania": 5385,
      "mediterranean": 5386,
      "bath": 5387,
      "hl": 5388,
      "kit": 5389,
      "poem": 5390,
      "appeal": 5391,
      "capture": 5392,
      "circumst": 5393,
      "biblical": 5394,
      "leaves": 5395,
      "sile": 5396,
      "commo": 5397,
      "lane": 5398,
      "dimensional": 5399,
      "coca": 5400,
      "indiana": 5401,
      "ibility": 5402,
      "cof": 5403,
      "decade": 5404,
      "attend": 5405,
      "tropical": 5406,
      "williams": 5407,
      "walls": 5408,
      "edited": 5409,
      "sher": 5410,
      "paint": 5411,
      "aa": 5412,
      "norway": 5413,
      "costs": 5414,
      "parliamentary": 5415,
      "explained": 5416,
      "unusual": 5417,
      "mayor": 5418,
      "categories": 5419,
      "hd": 5420,
      "mouse": 5421,
      "unless": 5422,
      "partly": 5423,
      "scul": 5424,
      "collective": 5425,
      "characteristic": 5426,
      "acquired": 5427,
      "aska": 5428,
      "notion": 5429,
      "immigr": 5430,
      "punish": 5431,
      "episodes": 5432,
      "kick": 5433,
      "abbrevi": 5434,
      "plural": 5435,
      "owner": 5436,
      "distinguished": 5437,
      "oe": 5438,
      "joe": 5439,
      "substit": 5440,
      "harry": 5441,
      "trading": 5442,
      "walk": 5443,
      "rulers": 5444,
      "gradually": 5445,
      "declaration": 5446,
      "atari": 5447,
      "cture": 5448,
      "racing": 5449,
      "prepar": 5450,
      "newly": 5451,
      "anglo": 5452,
      "legislation": 5453,
      "concentration": 5454,
      "component": 5455,
      "consumption": 5456,
      "iver": 5457,
      "kon": 5458,
      "lt": 5459,
      "uniform": 5460,
      "mike": 5461,
      "violent": 5462,
      "gone": 5463,
      "orian": 5464,
      "chlor": 5465,
      "pseud": 5466,
      "graduate": 5467,
      "pav": 5468,
      "sq": 5469,
      "wick": 5470,
      "consp": 5471,
      "util": 5472,
      "comparison": 5473,
      "converted": 5474,
      "ug": 5475,
      "chen": 5476,
      "iful": 5477,
      "steps": 5478,
      "collected": 5479,
      "synd": 5480,
      "rural": 5481,
      "concert": 5482,
      "issance": 5483,
      "pilot": 5484,
      "opponents": 5485,
      "ank": 5486,
      "plain": 5487,
      "herit": 5488,
      "moroc": 5489,
      "hope": 5490,
      "dangerous": 5491,
      "reforms": 5492,
      "drin": 5493,
      "substance": 5494,
      "vowel": 5495,
      "byzantine": 5496,
      "peninsula": 5497,
      "suicide": 5498,
      "finnish": 5499,
      "operated": 5500,
      "succession": 5501,
      "consisting": 5502,
      "prayer": 5503,
      "cartoon": 5504,
      "peak": 5505,
      "neo": 5506,
      "anyone": 5507,
      "grade": 5508,
      "ethics": 5509,
      "manufacturing": 5510,
      "ctrum": 5511,
      "knights": 5512,
      "width": 5513,
      "incident": 5514,
      "vak": 5515,
      "tox": 5516,
      "calling": 5517,
      "christo": 5518,
      "controll": 5519,
      "uous": 5520,
      "xi": 5521,
      "guil": 5522,
      "corresponding": 5523,
      "einstein": 5524,
      "nest": 5525,
      "escape": 5526,
      "conversion": 5527,
      "anglic": 5528,
      "aven": 5529,
      "offensive": 5530,
      "demographics": 5531,
      "velo": 5532,
      "hugh": 5533,
      "abandoned": 5534,
      "bone": 5535,
      "task": 5536,
      "sig": 5537,
      "theology": 5538,
      "rena": 5539,
      "politan": 5540,
      "concerns": 5541,
      "branches": 5542,
      "unciation": 5543,
      "akes": 5544,
      "giant": 5545,
      "learned": 5546,
      "export": 5547,
      "generated": 5548,
      "indigen": 5549,
      "volcan": 5550,
      "reflect": 5551,
      "telephone": 5552,
      "gence": 5553,
      "idi": 5554,
      "sper": 5555,
      "ridge": 5556,
      "sugar": 5557,
      "meat": 5558,
      "node": 5559,
      "attra": 5560,
      "inson": 5561,
      "borough": 5562,
      "phenomenon": 5563,
      "alternate": 5564,
      "teacher": 5565,
      "sylla": 5566,
      "patients": 5567,
      "leap": 5568,
      "fled": 5569,
      "consult": 5570,
      "stored": 5571,
      "bishops": 5572,
      "indigenous": 5573,
      "cate": 5574,
      "aret": 5575,
      "steve": 5576,
      "nik": 5577,
      "axis": 5578,
      "humor": 5579,
      "integrated": 5580,
      "sacrific": 5581,
      "nab": 5582,
      "pover": 5583,
      "ometers": 5584,
      "genus": 5585,
      "swiss": 5586,
      "measured": 5587,
      "oriented": 5588,
      "aus": 5589,
      "bce": 5590,
      "ople": 5591,
      "lowest": 5592,
      "anna": 5593,
      "skin": 5594,
      "compatible": 5595,
      "attended": 5596,
      "campus": 5597,
      "rhyth": 5598,
      "aero": 5599,
      "dd": 5600,
      "keley": 5601,
      "compact": 5602,
      "partial": 5603,
      "fresh": 5604,
      "hart": 5605,
      "infe": 5606,
      "rebel": 5607,
      "stim": 5608,
      "lift": 5609,
      "save": 5610,
      "solo": 5611,
      "probability": 5612,
      "duck": 5613,
      "facts": 5614,
      "approved": 5615,
      "pled": 5616,
      "dependent": 5617,
      "faced": 5618,
      "olympic": 5619,
      "caribbean": 5620,
      "fm": 5621,
      "gau": 5622,
      "inser": 5623,
      "ancy": 5624,
      "lets": 5625,
      "intent": 5626,
      "missions": 5627,
      "fairly": 5628,
      "garden": 5629,
      "compression": 5630,
      "sculpt": 5631,
      "aids": 5632,
      "khan": 5633,
      "png": 5634,
      "tracks": 5635,
      "explain": 5636,
      "cinema": 5637,
      "hob": 5638,
      "vas": 5639,
      "allies": 5640,
      "keys": 5641,
      "portra": 5642,
      "spectrum": 5643,
      "polar": 5644,
      "missis": 5645,
      "franch": 5646,
      "gnu": 5647,
      "complexity": 5648,
      "consistent": 5649,
      "conducted": 5650,
      "accomplish": 5651,
      "phon": 5652,
      "biograph": 5653,
      "burn": 5654,
      "denom": 5655,
      "limits": 5656,
      "flash": 5657,
      "experienced": 5658,
      "waters": 5659,
      "alien": 5660,
      "dynamic": 5661,
      "pig": 5662,
      "diver": 5663,
      "essay": 5664,
      "disney": 5665,
      "neuro": 5666,
      "struggle": 5667,
      "dating": 5668,
      "eing": 5669,
      "sword": 5670,
      "tics": 5671,
      "yes": 5672,
      "assa": 5673,
      "emperors": 5674,
      "martial": 5675,
      "holiday": 5676,
      "infantry": 5677,
      "comprehen": 5678,
      "mormon": 5679,
      "arguments": 5680,
      "chro": 5681,
      "berkeley": 5682,
      "scientist": 5683,
      "mum": 5684,
      "strings": 5685,
      "minimum": 5686,
      "switzer": 5687,
      "plication": 5688,
      "doubt": 5689,
      "bou": 5690,
      "cau": 5691,
      "norwe": 5692,
      "salt": 5693,
      "crypto": 5694,
      "implementation": 5695,
      "dod": 5696,
      "wright": 5697,
      "wolf": 5698,
      "optim": 5699,
      "prom": 5700,
      "canal": 5701,
      "interior": 5702,
      "thinking": 5703,
      "enic": 5704,
      "rac": 5705,
      "peg": 5706,
      "challeng": 5707,
      "shift": 5708,
      "ghost": 5709,
      "epist": 5710,
      "clubs": 5711,
      "carrier": 5712,
      "constantin": 5713,
      "ille": 5714,
      "eline": 5715,
      "painting": 5716,
      "geometry": 5717,
      "rebell": 5718,
      "pson": 5719,
      "operate": 5720,
      "cash": 5721,
      "experiments": 5722,
      "indonesia": 5723,
      "reject": 5724,
      "accused": 5725,
      "evangel": 5726,
      "walter": 5727,
      "chairman": 5728,
      "jum": 5729,
      "nie": 5730,
      "dean": 5731,
      "ilton": 5732,
      "intosh": 5733,
      "charges": 5734,
      "buried": 5735,
      "capitalism": 5736,
      "mechanism": 5737,
      "bacteria": 5738,
      "pup": 5739,
      "pear": 5740,
      "umes": 5741,
      "diseas": 5742,
      "ache": 5743,
      "muhammad": 5744,
      "headed": 5745,
      "furthermore": 5746,
      "ros": 5747,
      "prove": 5748,
      "chy": 5749,
      "hein": 5750,
      "velt": 5751,
      "themes": 5752,
      "industries": 5753,
      "switzerland": 5754,
      "aspect": 5755,
      "ounce": 5756,
      "colors": 5757,
      "platform": 5758,
      "instructions": 5759,
      "sn": 5760,
      "advis": 5761,
      "progressive": 5762,
      "excell": 5763,
      "proteins": 5764,
      "synthesis": 5765,
      "scope": 5766,
      "lyrics": 5767,
      "transform": 5768,
      "pierre": 5769,
      "perceived": 5770,
      "corporate": 5771,
      "spelling": 5772,
      "diamond": 5773,
      "pennsylvania": 5774,
      "hiv": 5775,
      "lud": 5776,
      "pom": 5777,
      "missour": 5778,
      "nig": 5779,
      "circumstances": 5780,
      "scor": 5781,
      "zing": 5782,
      "inity": 5783,
      "agents": 5784,
      "aber": 5785,
      "manchester": 5786,
      "ameter": 5787,
      "brig": 5788,
      "baltic": 5789,
      "prepared": 5790,
      "wilson": 5791,
      "dropped": 5792,
      "cuisine": 5793,
      "cous": 5794,
      "ture": 5795,
      "waves": 5796,
      "topol": 5797,
      "begun": 5798,
      "ette": 5799,
      "jeff": 5800,
      "bulgar": 5801,
      "preferred": 5802,
      "kas": 5803,
      "eless": 5804,
      "soil": 5805,
      "romag": 5806,
      "desire": 5807,
      "batman": 5808,
      "mine": 5809,
      "entro": 5810,
      "maria": 5811,
      "founding": 5812,
      "flood": 5813,
      "mexican": 5814,
      "municipal": 5815,
      "oblig": 5816,
      "zam": 5817,
      "ito": 5818,
      "lev": 5819,
      "mosc": 5820,
      "wire": 5821,
      "medal": 5822,
      "tales": 5823,
      "coastal": 5824,
      "laureate": 5825,
      "tt": 5826,
      "tip": 5827,
      "rever": 5828,
      "arc": 5829,
      "roose": 5830,
      "lins": 5831,
      "grey": 5832,
      "believ": 5833,
      "statist": 5834,
      "pdf": 5835,
      "colleges": 5836,
      "metic": 5837,
      "statements": 5838,
      "amongst": 5839,
      "douglas": 5840,
      "crystal": 5841,
      "bruce": 5842,
      "stret": 5843,
      "transmission": 5844,
      "ohio": 5845,
      "sippi": 5846,
      "hierarch": 5847,
      "mississippi": 5848,
      "diseases": 5849,
      "jay": 5850,
      "ensure": 5851,
      "moves": 5852,
      "floor": 5853,
      "experimental": 5854,
      "skills": 5855,
      "argentina": 5856,
      "heritage": 5857,
      "pip": 5858,
      "commod": 5859,
      "milk": 5860,
      "cave": 5861,
      "honour": 5862,
      "voting": 5863,
      "alexandria": 5864,
      "cin": 5865,
      "nick": 5866,
      "iceland": 5867,
      "roles": 5868,
      "macro": 5869,
      "laid": 5870,
      "ptions": 5871,
      "buff": 5872,
      "greeks": 5873,
      "norwegian": 5874,
      "illegal": 5875,
      "acted": 5876,
      "colom": 5877,
      "fluid": 5878,
      "bonds": 5879,
      "grown": 5880,
      "retired": 5881,
      "lisp": 5882,
      "depth": 5883,
      "breaking": 5884,
      "column": 5885,
      "velocity": 5886,
      "moscow": 5887,
      "roosevelt": 5888,
      "chad": 5889,
      "beings": 5890,
      "conven": 5891,
      "produces": 5892,
      "increases": 5893,
      "ilit": 5894,
      "osis": 5895,
      "hamilton": 5896,
      "shut": 5897,
      "asts": 5898,
      "missile": 5899,
      "characterized": 5900,
      "farm": 5901,
      "gravity": 5902,
      "influences": 5903,
      "execution": 5904,
      "neighbour": 5905,
      "tay": 5906,
      "info": 5907,
      "bears": 5908,
      "cule": 5909,
      "profile": 5910,
      "votes": 5911,
      "touch": 5912,
      "gments": 5913,
      "thew": 5914,
      "sud": 5915,
      "virtually": 5916,
      "missouri": 5917,
      "ees": 5918,
      "chal": 5919,
      "monster": 5920,
      "explanation": 5921,
      "encounter": 5922,
      "poems": 5923,
      "ruler": 5924,
      "assistance": 5925,
      "consumer": 5926,
      "neur": 5927,
      "delta": 5928,
      "fault": 5929,
      "airlines": 5930,
      "theoretical": 5931,
      "beautiful": 5932,
      "mish": 5933,
      "retri": 5934,
      "ende": 5935,
      "testing": 5936,
      "passage": 5937,
      "researchers": 5938,
      "columbus": 5939,
      "documentary": 5940,
      "nich": 5941,
      "shore": 5942,
      "legacy": 5943,
      "closer": 5944,
      "morning": 5945,
      "accident": 5946,
      "orate": 5947,
      "aga": 5948,
      "motiv": 5949,
      "grounds": 5950,
      "constantine": 5951,
      "attached": 5952,
      "wine": 5953,
      "yle": 5954,
      "libert": 5955,
      "cathe": 5956,
      "annex": 5957,
      "definitions": 5958,
      "engineer": 5959,
      "bull": 5960,
      "piano": 5961,
      "hits": 5962,
      "ym": 5963,
      "convict": 5964,
      "barbar": 5965,
      "resource": 5966,
      "requirements": 5967,
      "distinguish": 5968,
      "elsewhere": 5969,
      "rud": 5970,
      "orange": 5971,
      "cket": 5972,
      "depends": 5973,
      "getting": 5974,
      "driven": 5975,
      "boundaries": 5976,
      "preserved": 5977,
      "rating": 5978,
      "perspective": 5979,
      "harm": 5980,
      "operator": 5981,
      "northwest": 5982,
      "facilities": 5983,
      "algorithms": 5984,
      "shak": 5985,
      "borders": 5986,
      "gand": 5987,
      "complet": 5988,
      "warm": 5989,
      "willing": 5990,
      "bowl": 5991,
      "partner": 5992,
      "listing": 5993,
      "protected": 5994,
      "conduct": 5995,
      "benefit": 5996,
      "hors": 5997,
      "hack": 5998,
      "wig": 5999,
      "iser": 6000,
      "accus": 6001,
      "descent": 6002,
      "downtown": 6003,
      "reserve": 6004,
      "depos": 6005,
      "contrad": 6006,
      "confid": 6007,
      "apost": 6008,
      "signals": 6009,
      "locations": 6010,
      "attacked": 6011,
      "electrons": 6012,
      "metropolitan": 6013,
      "kno": 6014,
      "proven": 6015,
      "compass": 6016,
      "metall": 6017,
      "winner": 6018,
      "macintosh": 6019,
      "shock": 6020,
      "symptoms": 6021,
      "kam": 6022,
      "serves": 6023,
      "troit": 6024,
      "entertainment": 6025,
      "marshall": 6026,
      "ultimate": 6027,
      "stead": 6028,
      "imports": 6029,
      "technologies": 6030,
      "simpl": 6031,
      "titled": 6032,
      "hills": 6033,
      "reich": 6034,
      "arctic": 6035,
      "dee": 6036,
      "populations": 6037,
      "mainland": 6038,
      "restaur": 6039,
      "journey": 6040,
      "boundary": 6041,
      "glu": 6042,
      "remark": 6043,
      "disorder": 6044,
      "fles": 6045,
      "singular": 6046,
      "tests": 6047,
      "evolutionary": 6048,
      "cpu": 6049,
      "tut": 6050,
      "detroit": 6051,
      "desk": 6052,
      "solved": 6053,
      "additionally": 6054,
      "emerged": 6055,
      "credit": 6056,
      "gression": 6057,
      "napo": 6058,
      "acids": 6059,
      "tage": 6060,
      "osph": 6061,
      "organisation": 6062,
      "ani": 6063,
      "galile": 6064,
      "ampli": 6065,
      "laboratory": 6066,
      "interpreted": 6067,
      "beng": 6068,
      "rection": 6069,
      "eman": 6070,
      "divers": 6071,
      "germans": 6072,
      "vocal": 6073,
      "stick": 6074,
      "compound": 6075,
      "variants": 6076,
      "align": 6077,
      "calculus": 6078,
      "emphasis": 6079,
      "opponent": 6080,
      "inse": 6081,
      "esper": 6082,
      "adi": 6083,
      "covers": 6084,
      "blow": 6085,
      "rub": 6086,
      "followers": 6087,
      "simult": 6088,
      "scheme": 6089,
      "fis": 6090,
      "icks": 6091,
      "planning": 6092,
      "shaped": 6093,
      "infin": 6094,
      "illes": 6095,
      "guest": 6096,
      "angels": 6097,
      "starring": 6098,
      "assem": 6099,
      "philipp": 6100,
      "cort": 6101,
      "atically": 6102,
      "oration": 6103,
      "chel": 6104,
      "acre": 6105,
      "corps": 6106,
      "osaur": 6107,
      "treas": 6108,
      "representing": 6109,
      "frederick": 6110,
      "constantinople": 6111,
      "simultane": 6112,
      "mile": 6113,
      "maker": 6114,
      "figur": 6115,
      "channels": 6116,
      "lithuania": 6117,
      "basketball": 6118,
      "tap": 6119,
      "recur": 6120,
      "papers": 6121,
      "hypothesis": 6122,
      "confirmed": 6123,
      "driver": 6124,
      "tis": 6125,
      "armen": 6126,
      "mira": 6127,
      "powered": 6128,
      "claiming": 6129,
      "concern": 6130,
      "palestinian": 6131,
      "jurisdiction": 6132,
      "responsibility": 6133,
      "napoleon": 6134,
      "icians": 6135,
      "notice": 6136,
      "endo": 6137,
      "minute": 6138,
      "naturally": 6139,
      "judges": 6140,
      "partially": 6141,
      "ieth": 6142,
      "headquarters": 6143,
      "covering": 6144,
      "certainly": 6145,
      "enterpr": 6146,
      "zilla": 6147,
      "phe": 6148,
      "tus": 6149,
      "uter": 6150,
      "dublin": 6151,
      "ruption": 6152,
      "drink": 6153,
      "structural": 6154,
      "grave": 6155,
      "survived": 6156,
      "integral": 6157,
      "decisions": 6158,
      "revel": 6159,
      "sters": 6160,
      "phal": 6161,
      "wald": 6162,
      "kinds": 6163,
      "cathedr": 6164,
      "iet": 6165,
      "bai": 6166,
      "pronunciation": 6167,
      "kilometers": 6168,
      "composers": 6169,
      "comprehensive": 6170,
      "amend": 6171,
      "urb": 6172,
      "gosla": 6173,
      "cker": 6174,
      "warri": 6175,
      "longest": 6176,
      "solutions": 6177,
      "referring": 6178,
      "ecli": 6179,
      "copies": 6180,
      "districts": 6181,
      "stall": 6182,
      "charter": 6183,
      "gravit": 6184,
      "residence": 6185,
      "baptism": 6186,
      "horizon": 6187,
      "thal": 6188,
      "roger": 6189,
      "conds": 6190,
      "raw": 6191,
      "exile": 6192,
      "compla": 6193,
      "unix": 6194,
      "crimes": 6195,
      "pyth": 6196,
      "yugosla": 6197,
      "athens": 6198,
      "sleep": 6199,
      "upr": 6200,
      "anian": 6201,
      "isen": 6202,
      "irs": 6203,
      "prev": 6204,
      "goals": 6205,
      "nosis": 6206,
      "representative": 6207,
      "automatic": 6208,
      "bav": 6209,
      "ecol": 6210,
      "enforce": 6211,
      "mah": 6212,
      "grass": 6213,
      "dylan": 6214,
      "disputed": 6215,
      "restricted": 6216,
      "poverty": 6217,
      "ati": 6218,
      "chrom": 6219,
      "matrix": 6220,
      "monarchy": 6221,
      "diplomatic": 6222,
      "assault": 6223,
      "inch": 6224,
      "outer": 6225,
      "abort": 6226,
      "liby": 6227,
      "cole": 6228,
      "spar": 6229,
      "steam": 6230,
      "meanings": 6231,
      "soldier": 6232,
      "buddhist": 6233,
      "procedure": 6234,
      "theolog": 6235,
      "edi": 6236,
      "seek": 6237,
      "rug": 6238,
      "dragon": 6239,
      "couple": 6240,
      "behaviour": 6241,
      "theod": 6242,
      "valent": 6243,
      "variation": 6244,
      "originated": 6245,
      "inducted": 6246,
      "didn": 6247,
      "animated": 6248,
      "maxim": 6249,
      "promise": 6250,
      "dress": 6251,
      "knew": 6252,
      "aca": 6253,
      "vii": 6254,
      "specul": 6255,
      "relativity": 6256,
      "celebrated": 6257,
      "dynamics": 6258,
      "victoria": 6259,
      "sult": 6260,
      "vals": 6261,
      "ager": 6262,
      "tape": 6263,
      "offers": 6264,
      "ranked": 6265,
      "confused": 6266,
      "forests": 6267,
      "emot": 6268,
      "ask": 6269,
      "dore": 6270,
      "pressive": 6271,
      "easier": 6272,
      "sunday": 6273,
      "seemed": 6274,
      "percentage": 6275,
      "aar": 6276,
      "wins": 6277,
      "recon": 6278,
      "enzy": 6279,
      "directors": 6280,
      "defensive": 6281,
      "carrying": 6282,
      "rebellion": 6283,
      "bility": 6284,
      "etz": 6285,
      "marsh": 6286,
      "braltar": 6287,
      "gibraltar": 6288,
      "senator": 6289,
      "thirty": 6290,
      "flex": 6291,
      "siles": 6292,
      "storm": 6293,
      "kor": 6294,
      "oy": 6295,
      "exceed": 6296,
      "abuse": 6297,
      "affil": 6298,
      "liberty": 6299,
      "ontario": 6300,
      "uals": 6301,
      "landing": 6302,
      "performing": 6303,
      "commentary": 6304,
      "briefly": 6305,
      "descendants": 6306,
      "honey": 6307,
      "varies": 6308,
      "ested": 6309,
      "millenn": 6310,
      "relevant": 6311,
      "holidays": 6312,
      "extinct": 6313,
      "horses": 6314,
      "chart": 6315,
      "sized": 6316,
      "whit": 6317,
      "gran": 6318,
      "brad": 6319,
      "presidency": 6320,
      "monet": 6321,
      "recipient": 6322,
      "aes": 6323,
      "remove": 6324,
      "array": 6325,
      "armies": 6326,
      "abd": 6327,
      "interaction": 6328,
      "constitu": 6329,
      "automat": 6330,
      "expert": 6331,
      "debt": 6332,
      "resur": 6333,
      "overview": 6334,
      "highway": 6335,
      "assassination": 6336,
      "esp": 6337,
      "sust": 6338,
      "boom": 6339,
      "dismis": 6340,
      "trained": 6341,
      "definite": 6342,
      "punk": 6343,
      "opportunity": 6344,
      "oo": 6345,
      "capit": 6346,
      "deput": 6347,
      "nato": 6348,
      "finalist": 6349,
      "send": 6350,
      "senior": 6351,
      "copper": 6352,
      "nasa": 6353,
      "friedrich": 6354,
      "absence": 6355,
      "thum": 6356,
      "carter": 6357,
      "bases": 6358,
      "earthqu": 6359,
      "sentence": 6360,
      "conquered": 6361,
      "wol": 6362,
      "inf": 6363,
      "eras": 6364,
      "onaut": 6365,
      "amate": 6366,
      "umental": 6367,
      "predominant": 6368,
      "agreements": 6369,
      "indicates": 6370,
      "junction": 6371,
      "collapse": 6372,
      "matthew": 6373,
      "contributions": 6374,
      "emergency": 6375,
      "encouraged": 6376,
      "victims": 6377,
      "bulgaria": 6378,
      "wish": 6379,
      "factory": 6380,
      "personality": 6381,
      "slave": 6382,
      "enemies": 6383,
      "vowels": 6384,
      "macedonia": 6385,
      "taiwan": 6386,
      "unte": 6387,
      "raid": 6388,
      "afterwards": 6389,
      "holoc": 6390,
      "suitable": 6391,
      "renaissance": 6392,
      "tho": 6393,
      "stages": 6394,
      "congreg": 6395,
      "southeast": 6396,
      "fraction": 6397,
      "difficulty": 6398,
      "secular": 6399,
      "caval": 6400,
      "cathedral": 6401,
      "yr": 6402,
      "inhab": 6403,
      "ensu": 6404,
      "agave": 6405,
      "goog": 6406,
      "continuing": 6407,
      "phoen": 6408,
      "relief": 6409,
      "conspira": 6410,
      "dir": 6411,
      "aki": 6412,
      "cleve": 6413,
      "equator": 6414,
      "benjam": 6415,
      "sacred": 6416,
      "fs": 6417,
      "migr": 6418,
      "wers": 6419,
      "wound": 6420,
      "enge": 6421,
      "hism": 6422,
      "eleph": 6423,
      "basque": 6424,
      "household": 6425,
      "ethical": 6426,
      "client": 6427,
      "promote": 6428,
      "schedul": 6429,
      "editions": 6430,
      "semin": 6431,
      "administer": 6432,
      "ella": 6433,
      "netic": 6434,
      "specified": 6435,
      "dictator": 6436,
      "integration": 6437,
      "possession": 6438,
      "athlet": 6439,
      "camps": 6440,
      "gets": 6441,
      "lenin": 6442,
      "nol": 6443,
      "ington": 6444,
      "lax": 6445,
      "focused": 6446,
      "sail": 6447,
      "tony": 6448,
      "interested": 6449,
      "reaching": 6450,
      "bibliography": 6451,
      "reactions": 6452,
      "seconds": 6453,
      "decor": 6454,
      "races": 6455,
      "virus": 6456,
      "survive": 6457,
      "linguistic": 6458,
      "phenomena": 6459,
      "yah": 6460,
      "reco": 6461,
      "deli": 6462,
      "losing": 6463,
      "shah": 6464,
      "distinctive": 6465,
      "enor": 6466,
      "sox": 6467,
      "vienna": 6468,
      "miner": 6469,
      "archive": 6470,
      "communism": 6471,
      "merged": 6472,
      "presidents": 6473,
      "patient": 6474,
      "territorial": 6475,
      "secure": 6476,
      "chose": 6477,
      "diverse": 6478,
      "mining": 6479,
      "funds": 6480,
      "epic": 6481,
      "southwest": 6482,
      "sha": 6483,
      "noble": 6484,
      "intervent": 6485,
      "passenger": 6486,
      "substances": 6487,
      "lens": 6488,
      "rier": 6489,
      "insul": 6490,
      "volunte": 6491,
      "designated": 6492,
      "electronics": 6493,
      "discussed": 6494,
      "gates": 6495,
      "brus": 6496,
      "buy": 6497,
      "fund": 6498,
      "transferred": 6499,
      "ownership": 6500,
      "paved": 6501,
      "seasons": 6502,
      "deliber": 6503,
      "artistic": 6504,
      "ints": 6505,
      "lesser": 6506,
      "hotel": 6507,
      "happened": 6508,
      "pairs": 6509,
      "benjamin": 6510,
      "pli": 6511,
      "makers": 6512,
      "clark": 6513,
      "boot": 6514,
      "engineers": 6515,
      "challenge": 6516,
      "jama": 6517,
      "electoral": 6518,
      "electromag": 6519,
      "humanity": 6520,
      "profession": 6521,
      "reduction": 6522,
      "gregorian": 6523,
      "secution": 6524,
      "baptist": 6525,
      "sudden": 6526,
      "bart": 6527,
      "ardo": 6528,
      "passes": 6529,
      "regardless": 6530,
      "speaker": 6531,
      "kuwait": 6532,
      "welsh": 6533,
      "gallery": 6534,
      "fighter": 6535,
      "stones": 6536,
      "owa": 6537,
      "proportion": 6538,
      "phar": 6539,
      "marit": 6540,
      "membr": 6541,
      "horn": 6542,
      "implemented": 6543,
      "carolina": 6544,
      "hex": 6545,
      "rocks": 6546,
      "raine": 6547,
      "loop": 6548,
      "romantic": 6549,
      "etym": 6550,
      "catal": 6551,
      "prophet": 6552,
      "psychological": 6553,
      "santa": 6554,
      "cleveland": 6555,
      "tab": 6556,
      "adjust": 6557,
      "everyone": 6558,
      "twentieth": 6559,
      "manip": 6560,
      "aco": 6561,
      "loose": 6562,
      "phosph": 6563,
      "empty": 6564,
      "horror": 6565,
      "candidates": 6566,
      "christopher": 6567,
      "gart": 6568,
      "sli": 6569,
      "leo": 6570,
      "roe": 6571,
      "phones": 6572,
      "lights": 6573,
      "commodore": 6574,
      "bast": 6575,
      "scar": 6576,
      "toler": 6577,
      "debut": 6578,
      "rie": 6579,
      "illness": 6580,
      "indians": 6581,
      "educated": 6582,
      "regularly": 6583,
      "immediate": 6584,
      "advertising": 6585,
      "statistical": 6586,
      "cue": 6587,
      "ider": 6588,
      "migration": 6589,
      "tale": 6590,
      "arn": 6591,
      "integer": 6592,
      "constell": 6593,
      "yn": 6594,
      "det": 6595,
      "uncertain": 6596,
      "elab": 6597,
      "ptic": 6598,
      "corner": 6599,
      "deploy": 6600,
      "slaves": 6601,
      "arrangement": 6602,
      "diagram": 6603,
      "shadow": 6604,
      "arbitr": 6605,
      "esperanto": 6606,
      "alber": 6607,
      "accompan": 6608,
      "borrow": 6609,
      "translations": 6610,
      "infras": 6611,
      "belar": 6612,
      "imprison": 6613,
      "agues": 6614,
      "acle": 6615,
      "lose": 6616,
      "viii": 6617,
      "assign": 6618,
      "properly": 6619,
      "anthony": 6620,
      "oke": 6621,
      "ila": 6622,
      "sided": 6623,
      "moses": 6624,
      "intention": 6625,
      "powder": 6626,
      "variables": 6627,
      "helm": 6628,
      "grace": 6629,
      "ruling": 6630,
      "criticized": 6631,
      "sharp": 6632,
      "campbell": 6633,
      "restrictions": 6634,
      "trigger": 6635,
      "dum": 6636,
      "flower": 6637,
      "theor": 6638,
      "isle": 6639,
      "beta": 6640,
      "sius": 6641,
      "imination": 6642,
      "barrel": 6643,
      "scription": 6644,
      "adapted": 6645,
      "hz": 6646,
      "apoc": 6647,
      "poison": 6648,
      "plas": 6649,
      "montre": 6650,
      "bug": 6651,
      "describing": 6652,
      "specialized": 6653,
      "squad": 6654,
      "arranged": 6655,
      "innov": 6656,
      "lang": 6657,
      "tin": 6658,
      "archbishop": 6659,
      "clau": 6660,
      "libraries": 6661,
      "divor": 6662,
      "alogue": 6663,
      "princess": 6664,
      "infrastru": 6665,
      "dys": 6666,
      "enab": 6667,
      "engaged": 6668,
      "offices": 6669,
      "sket": 6670,
      "females": 6671,
      "streets": 6672,
      "reverse": 6673,
      "ope": 6674,
      "topic": 6675,
      "approval": 6676,
      "slavery": 6677,
      "happy": 6678,
      "isaac": 6679,
      "accompanied": 6680,
      "eur": 6681,
      "gren": 6682,
      "abu": 6683,
      "neck": 6684,
      "seeing": 6685,
      "turns": 6686,
      "starts": 6687,
      "biggest": 6688,
      "colorado": 6689,
      "mixture": 6690,
      "arithmetic": 6691,
      "tet": 6692,
      "erit": 6693,
      "atol": 6694,
      "escap": 6695,
      "etics": 6696,
      "accent": 6697,
      "miller": 6698,
      "civilian": 6699,
      "cellular": 6700,
      "bourg": 6701,
      "duty": 6702,
      "contrary": 6703,
      "varying": 6704,
      "depicted": 6705,
      "syndrome": 6706,
      "bm": 6707,
      "gli": 6708,
      "rical": 6709,
      "kness": 6710,
      "invention": 6711,
      "situations": 6712,
      "andre": 6713,
      "leum": 6714,
      "animation": 6715,
      "chancell": 6716,
      "insurance": 6717,
      "jar": 6718,
      "twin": 6719,
      "rays": 6720,
      "racial": 6721,
      "minnes": 6722,
      "transp": 6723,
      "molecule": 6724,
      "laser": 6725,
      "mt": 6726,
      "sburg": 6727,
      "nova": 6728,
      "angular": 6729,
      "hetero": 6730,
      "investigation": 6731,
      "retained": 6732,
      "morocco": 6733,
      "bent": 6734,
      "hend": 6735,
      "nur": 6736,
      "tering": 6737,
      "doom": 6738,
      "herbert": 6739,
      "surrender": 6740,
      "session": 6741,
      "approxim": 6742,
      "isolated": 6743,
      "proport": 6744,
      "disambig": 6745,
      "herself": 6746,
      "confusion": 6747,
      "amateur": 6748,
      "veter": 6749,
      "lifet": 6750,
      "allen": 6751,
      "estate": 6752,
      "assess": 6753,
      "scenes": 6754,
      "collect": 6755,
      "declined": 6756,
      "manufacturers": 6757,
      "mia": 6758,
      "inspir": 6759,
      "ima": 6760,
      "elder": 6761,
      "peas": 6762,
      "planets": 6763,
      "liberation": 6764,
      "commerce": 6765,
      "tank": 6766,
      "buddhism": 6767,
      "sweet": 6768,
      "cavalry": 6769,
      "inium": 6770,
      "olas": 6771,
      "syrian": 6772,
      "creator": 6773,
      "winds": 6774,
      "spacecraft": 6775,
      "tournam": 6776,
      "messages": 6777,
      "comparative": 6778,
      "demonstrated": 6779,
      "galaxy": 6780,
      "petroleum": 6781,
      "chet": 6782,
      "coin": 6783,
      "dub": 6784,
      "airports": 6785,
      "handed": 6786,
      "reducing": 6787,
      "observations": 6788,
      "bronze": 6789,
      "strategic": 6790,
      "gothic": 6791,
      "atus": 6792,
      "oles": 6793,
      "cyprus": 6794,
      "franco": 6795,
      "salv": 6796,
      "indicated": 6797,
      "houston": 6798,
      "sovereignty": 6799,
      "cricket": 6800,
      "montreal": 6801,
      "delay": 6802,
      "lith": 6803,
      "steven": 6804,
      "expedition": 6805,
      "sample": 6806,
      "bringing": 6807,
      "exclusively": 6808,
      "adelph": 6809,
      "diversity": 6810,
      "infect": 6811,
      "congo": 6812,
      "condem": 6813,
      "guin": 6814,
      "plastic": 6815,
      "hash": 6816,
      "tribe": 6817,
      "lawrence": 6818,
      "camera": 6819,
      "appearances": 6820,
      "terminal": 6821,
      "replacement": 6822,
      "alaska": 6823,
      "mineral": 6824,
      "iate": 6825,
      "imon": 6826,
      "abil": 6827,
      "nov": 6828,
      "disaster": 6829,
      "solve": 6830,
      "falling": 6831,
      "rolling": 6832,
      "dramatic": 6833,
      "rin": 6834,
      "oty": 6835,
      "acles": 6836,
      "eccles": 6837,
      "connections": 6838,
      "purchase": 6839,
      "banned": 6840,
      "dil": 6841,
      "lom": 6842,
      "pill": 6843,
      "chat": 6844,
      "publicly": 6845,
      "custo": 6846,
      "download": 6847,
      "democrats": 6848,
      "geographic": 6849,
      "toxic": 6850,
      "holocaust": 6851,
      "rt": 6852,
      "interrupt": 6853,
      "handle": 6854,
      "receiving": 6855,
      "cardinal": 6856,
      "conspiracy": 6857,
      "lig": 6858,
      "deck": 6859,
      "dium": 6860,
      "feud": 6861,
      "earned": 6862,
      "norman": 6863,
      "generate": 6864,
      "penalty": 6865,
      "alism": 6866,
      "mood": 6867,
      "boeing": 6868,
      "estimates": 6869,
      "pollution": 6870,
      "coffee": 6871,
      "infrastructure": 6872,
      "tight": 6873,
      "tot": 6874,
      "differential": 6875,
      "statue": 6876,
      "separation": 6877,
      "surviving": 6878,
      "atlanta": 6879,
      "dimension": 6880,
      "siege": 6881,
      "ode": 6882,
      "illi": 6883,
      "sixth": 6884,
      "compris": 6885,
      "playoff": 6886,
      "varieties": 6887,
      "disambiguation": 6888,
      "sans": 6889,
      "sale": 6890,
      "ulating": 6891,
      "quebec": 6892,
      "rocket": 6893,
      "strictly": 6894,
      "tells": 6895,
      "minnesota": 6896,
      "fusion": 6897,
      "theater": 6898,
      "cooperation": 6899,
      "worn": 6900,
      "supports": 6901,
      "millions": 6902,
      "adequ": 6903,
      "experiences": 6904,
      "fishing": 6905,
      "slowly": 6906,
      "blade": 6907,
      "newspapers": 6908,
      "arrested": 6909,
      "franchise": 6910,
      "fract": 6911,
      "entr": 6912,
      "optical": 6913,
      "dios": 6914,
      "essays": 6915,
      "haus": 6916,
      "commons": 6917,
      "cheap": 6918,
      "benefits": 6919,
      "wich": 6920,
      "chick": 6921,
      "convin": 6922,
      "dioxide": 6923,
      "overseas": 6924,
      "doesn": 6925,
      "cathol": 6926,
      "wonder": 6927,
      "prisoners": 6928,
      "discipline": 6929,
      "genesis": 6930,
      "rep": 6931,
      "recept": 6932,
      "unfortun": 6933,
      "creative": 6934,
      "cultiv": 6935,
      "journalist": 6936,
      "explorer": 6937,
      "prompt": 6938,
      "excellent": 6939,
      "whate": 6940,
      "permitted": 6941,
      "bulgarian": 6942,
      "valuable": 6943,
      "monetary": 6944,
      "ariz": 6945,
      "geno": 6946,
      "moreover": 6947,
      "latvia": 6948,
      "personnel": 6949,
      "torah": 6950,
      "looked": 6951,
      "admiral": 6952,
      "whatever": 6953,
      "tempor": 6954,
      "instant": 6955,
      "fired": 6956,
      "expo": 6957,
      "flop": 6958,
      "jane": 6959,
      "mounted": 6960,
      "inventor": 6961,
      "tunnel": 6962,
      "involvement": 6963,
      "delivered": 6964,
      "anglican": 6965,
      "ether": 6966,
      "wet": 6967,
      "considerably": 6968,
      "quantity": 6969,
      "conclusion": 6970,
      "confederate": 6971,
      "monopoly": 6972,
      "feld": 6973,
      "select": 6974,
      "option": 6975,
      "marg": 6976,
      "mason": 6977,
      "teachings": 6978,
      "measurement": 6979,
      "broadcasting": 6980,
      "rev": 6981,
      "igno": 6982,
      "ilst": 6983,
      "ighth": 6984,
      "adject": 6985,
      "printing": 6986,
      "framework": 6987,
      "kazakh": 6988,
      "lifetime": 6989,
      "ingly": 6990,
      "ista": 6991,
      "lace": 6992,
      "presu": 6993,
      "serial": 6994,
      "deser": 6995,
      "thusi": 6996,
      "taylor": 6997,
      "deut": 6998,
      "whilst": 6999,
      "meter": 7000,
      "developments": 7001,
      "bread": 7002,
      "winners": 7003,
      "anime": 7004,
      "retire": 7005,
      "baker": 7006,
      "legitimate": 7007,
      "ethiopia": 7008,
      "sultan": 7009,
      "catholics": 7010,
      "mul": 7011,
      "rear": 7012,
      "ented": 7013,
      "curve": 7014,
      "brook": 7015,
      "duties": 7016,
      "linguistics": 7017,
      "consequently": 7018,
      "ores": 7019,
      "stability": 7020,
      "propon": 7021,
      "abc": 7022,
      "metaph": 7023,
      "intervention": 7024,
      "bod": 7025,
      "peters": 7026,
      "cian": 7027,
      "peru": 7028,
      "bald": 7029,
      "conception": 7030,
      "synthe": 7031,
      "voted": 7032,
      "bernard": 7033,
      "punishment": 7034,
      "pagan": 7035,
      "temporary": 7036,
      "amiga": 7037,
      "dius": 7038,
      "transmit": 7039,
      "drag": 7040,
      "window": 7041,
      "disputes": 7042,
      "gord": 7043,
      "enthusi": 7044,
      "resign": 7045,
      "aya": 7046,
      "hyp": 7047,
      "controls": 7048,
      "observation": 7049,
      "recordings": 7050,
      "enjoyed": 7051,
      "aristotle": 7052,
      "returning": 7053,
      "adic": 7054,
      "monaster": 7055,
      "tsky": 7056,
      "seeking": 7057,
      "establishing": 7058,
      "footballer": 7059,
      "ranges": 7060,
      "participation": 7061,
      "mystery": 7062,
      "explicitly": 7063,
      "eor": 7064,
      "mao": 7065,
      "gry": 7066,
      "guer": 7067,
      "gues": 7068,
      "pregn": 7069,
      "bub": 7070,
      "metals": 7071,
      "robinson": 7072,
      "turing": 7073,
      "admitted": 7074,
      "coven": 7075,
      "romania": 7076,
      "planes": 7077,
      "koso": 7078,
      "bicy": 7079,
      "patriarch": 7080,
      "hidden": 7081,
      "devoted": 7082,
      "fate": 7083,
      "tat": 7084,
      "renew": 7085,
      "revised": 7086,
      "perception": 7087,
      "centers": 7088,
      "hara": 7089,
      "paradox": 7090,
      "shorter": 7091,
      "immigrants": 7092,
      "eph": 7093,
      "fined": 7094,
      "volumes": 7095,
      "politicians": 7096,
      "empir": 7097,
      "routes": 7098,
      "dollars": 7099,
      "citizenship": 7100,
      "inhabited": 7101,
      "cill": 7102,
      "olar": 7103,
      "ote": 7104,
      "hai": 7105,
      "berry": 7106,
      "marvel": 7107,
      "mercur": 7108,
      "childhood": 7109,
      "immigration": 7110,
      "tube": 7111,
      "confess": 7112,
      "hunting": 7113,
      "negotiations": 7114,
      "portrait": 7115,
      "hut": 7116,
      "oter": 7117,
      "xon": 7118,
      "cyber": 7119,
      "collections": 7120,
      "antiqu": 7121,
      "lamb": 7122,
      "loyal": 7123,
      "comedian": 7124,
      "infer": 7125,
      "anchor": 7126,
      "alger": 7127,
      "loved": 7128,
      "oked": 7129,
      "missiles": 7130,
      "julian": 7131,
      "iranian": 7132,
      "purchased": 7133,
      "efficiency": 7134,
      "nings": 7135,
      "rober": 7136,
      "worst": 7137,
      "finance": 7138,
      "finds": 7139,
      "singing": 7140,
      "holes": 7141,
      "legendary": 7142,
      "bare": 7143,
      "ardi": 7144,
      "concrete": 7145,
      "exposed": 7146,
      "buck": 7147,
      "superman": 7148,
      "implies": 7149,
      "reliable": 7150,
      "google": 7151,
      "pale": 7152,
      "parent": 7153,
      "astero": 7154,
      "simpli": 7155,
      "grain": 7156,
      "adesh": 7157,
      "astronomy": 7158,
      "restored": 7159,
      "oz": 7160,
      "stere": 7161,
      "termed": 7162,
      "eleven": 7163,
      "scat": 7164,
      "insist": 7165,
      "vertical": 7166,
      "looks": 7167,
      "consonant": 7168,
      "orchestra": 7169,
      "arizona": 7170,
      "cf": 7171,
      "thrown": 7172,
      "orth": 7173,
      "ammon": 7174,
      "diac": 7175,
      "margin": 7176,
      "equally": 7177,
      "adjac": 7178,
      "configur": 7179,
      "prosper": 7180,
      "peer": 7181,
      "phan": 7182,
      "timore": 7183,
      "angles": 7184,
      "northeast": 7185,
      "drives": 7186,
      "consequences": 7187,
      "aman": 7188,
      "eta": 7189,
      "correctly": 7190,
      "assume": 7191,
      "proposal": 7192,
      "kom": 7193,
      "hydr": 7194,
      "clay": 7195,
      "processors": 7196,
      "guitarist": 7197,
      "moldo": 7198,
      "maurit": 7199,
      "omes": 7200,
      "lia": 7201,
      "interactive": 7202,
      "burning": 7203,
      "accuracy": 7204,
      "promoted": 7205,
      "vacu": 7206,
      "premier": 7207,
      "mund": 7208,
      "sphere": 7209,
      "tends": 7210,
      "yard": 7211,
      "theological": 7212,
      "edit": 7213,
      "asci": 7214,
      "itative": 7215,
      "philadelph": 7216,
      "dinosaur": 7217,
      "concluded": 7218,
      "beauty": 7219,
      "exercis": 7220,
      "situated": 7221,
      "finger": 7222,
      "caught": 7223,
      "juni": 7224,
      "pm": 7225,
      "tomb": 7226,
      "therapy": 7227,
      "wayne": 7228,
      "cycles": 7229,
      "eucli": 7230,
      "harrison": 7231,
      "gamma": 7232,
      "concentrated": 7233,
      "adventure": 7234,
      "gordon": 7235,
      "lion": 7236,
      "mate": 7237,
      "isition": 7238,
      "gov": 7239,
      "cylin": 7240,
      "dave": 7241,
      "villa": 7242,
      "fewer": 7243,
      "returns": 7244,
      "terminology": 7245,
      "apolis": 7246,
      "algebraic": 7247,
      "chancellor": 7248,
      "thick": 7249,
      "enlight": 7250,
      "orb": 7251,
      "monitor": 7252,
      "counties": 7253,
      "stopped": 7254,
      "prussia": 7255,
      "glaci": 7256,
      "complicated": 7257,
      "maj": 7258,
      "phony": 7259,
      "athy": 7260,
      "obsole": 7261,
      "funding": 7262,
      "releases": 7263,
      "binding": 7264,
      "removal": 7265,
      "eb": 7266,
      "sevent": 7267,
      "bless": 7268,
      "minster": 7269,
      "jobs": 7270,
      "gery": 7271,
      "physician": 7272,
      "cognitive": 7273,
      "instrumental": 7274,
      "advantages": 7275,
      "housing": 7276,
      "millennium": 7277,
      "gm": 7278,
      "tig": 7279,
      "wings": 7280,
      "edin": 7281,
      "onel": 7282,
      "sier": 7283,
      "byte": 7284,
      "iang": 7285,
      "idae": 7286,
      "gerald": 7287,
      "cession": 7288,
      "trip": 7289,
      "transformation": 7290,
      "persist": 7291,
      "johnny": 7292,
      "jacques": 7293,
      "heroes": 7294,
      "omorphism": 7295,
      "maritime": 7296,
      "inhib": 7297,
      "amine": 7298,
      "intense": 7299,
      "singles": 7300,
      "varied": 7301,
      "gib": 7302,
      "driving": 7303,
      "margaret": 7304,
      "adjacent": 7305,
      "iowa": 7306,
      "pace": 7307,
      "accum": 7308,
      "coat": 7309,
      "recognize": 7310,
      "crypt": 7311,
      "remote": 7312,
      "mph": 7313,
      "anderson": 7314,
      "consequence": 7315,
      "veness": 7316,
      "versus": 7317,
      "triple": 7318,
      "voltage": 7319,
      "supers": 7320,
      "objective": 7321,
      "railroad": 7322,
      "difficulties": 7323,
      "scandina": 7324,
      "philadelphia": 7325,
      "tort": 7326,
      "elic": 7327,
      "prede": 7328,
      "baro": 7329,
      "expend": 7330,
      "murray": 7331,
      "queens": 7332,
      "harmonic": 7333,
      "circuits": 7334,
      "portrayed": 7335,
      "revelation": 7336,
      "obsolete": 7337,
      "gle": 7338,
      "genres": 7339,
      "michel": 7340,
      "louisiana": 7341,
      "ifying": 7342,
      "ceremony": 7343,
      "conce": 7344,
      "proclaimed": 7345,
      "cope": 7346,
      "nelson": 7347,
      "rotation": 7348,
      "girls": 7349,
      "smooth": 7350,
      "ijing": 7351,
      "recovery": 7352,
      "fbi": 7353,
      "hond": 7354,
      "nag": 7355,
      "omon": 7356,
      "uran": 7357,
      "authen": 7358,
      "strange": 7359,
      "minimal": 7360,
      "aked": 7361,
      "capita": 7362,
      "siders": 7363,
      "trotsky": 7364,
      "catch": 7365,
      "tourist": 7366,
      "decimal": 7367,
      "quoted": 7368,
      "magnitude": 7369,
      "gus": 7370,
      "scan": 7371,
      "yi": 7372,
      "orious": 7373,
      "una": 7374,
      "abul": 7375,
      "versary": 7376,
      "pointed": 7377,
      "belt": 7378,
      "arrival": 7379,
      "adventures": 7380,
      "gauge": 7381,
      "predecess": 7382,
      "bought": 7383,
      "cim": 7384,
      "jup": 7385,
      "khaz": 7386,
      "asi": 7387,
      "deleg": 7388,
      "riel": 7389,
      "doors": 7390,
      "muscle": 7391,
      "photos": 7392,
      "rooms": 7393,
      "settlements": 7394,
      "reflected": 7395,
      "clergy": 7396,
      "pad": 7397,
      "usions": 7398,
      "lab": 7399,
      "connect": 7400,
      "appearing": 7401,
      "thompson": 7402,
      "buffalo": 7403,
      "chris": 7404,
      "privi": 7405,
      "readers": 7406,
      "dealing": 7407,
      "mercury": 7408,
      "krit": 7409,
      "oks": 7410,
      "wrest": 7411,
      "seventh": 7412,
      "extend": 7413,
      "governing": 7414,
      "designer": 7415,
      "meanwhile": 7416,
      "entropy": 7417,
      "cere": 7418,
      "cats": 7419,
      "kle": 7420,
      "oak": 7421,
      "anatom": 7422,
      "stig": 7423,
      "sees": 7424,
      "beijing": 7425,
      "coins": 7426,
      "cooper": 7427,
      "landsc": 7428,
      "meteor": 7429,
      "reader": 7430,
      "cuban": 7431,
      "marketing": 7432,
      "flows": 7433,
      "othe": 7434,
      "sad": 7435,
      "forbid": 7436,
      "median": 7437,
      "customs": 7438,
      "patrick": 7439,
      "rush": 7440,
      "suffering": 7441,
      "membrane": 7442,
      "baroque": 7443,
      "pine": 7444,
      "rhe": 7445,
      "tha": 7446,
      "reconstruction": 7447,
      "raise": 7448,
      "alloc": 7449,
      "intermedi": 7450,
      "thereby": 7451,
      "please": 7452,
      "denied": 7453,
      "attempting": 7454,
      "exceptions": 7455,
      "blocks": 7456,
      "matt": 7457,
      "robot": 7458,
      "unk": 7459,
      "moor": 7460,
      "apore": 7461,
      "tram": 7462,
      "preach": 7463,
      "luke": 7464,
      "leaf": 7465,
      "counts": 7466,
      "kov": 7467,
      "augustus": 7468,
      "gregory": 7469,
      "sensitive": 7470,
      "surrounded": 7471,
      "mathematicians": 7472,
      "fossil": 7473,
      "authentic": 7474,
      "eda": 7475,
      "regist": 7476,
      "crops": 7477,
      "advice": 7478,
      "significance": 7479,
      "manufactured": 7480,
      "friendly": 7481,
      "eating": 7482,
      "itted": 7483,
      "adher": 7484,
      "shir": 7485,
      "moderate": 7486,
      "summary": 7487,
      "quantities": 7488,
      "mirror": 7489,
      "nitro": 7490,
      "tribute": 7491,
      "skept": 7492,
      "unions": 7493,
      "afc": 7494,
      "cord": 7495,
      "thanks": 7496,
      "balls": 7497,
      "belgian": 7498,
      "threatened": 7499,
      "hatt": 7500,
      "tions": 7501,
      "vig": 7502,
      "inus": 7503,
      "cht": 7504,
      "comet": 7505,
      "acking": 7506,
      "marry": 7507,
      "singapore": 7508,
      "easter": 7509,
      "wake": 7510,
      "independently": 7511,
      "taxes": 7512,
      "maintains": 7513,
      "competitive": 7514,
      "aer": 7515,
      "alive": 7516,
      "corruption": 7517,
      "pressing": 7518,
      "worlds": 7519,
      "milan": 7520,
      "bourne": 7521,
      "terrorist": 7522,
      "refugees": 7523,
      "hawaii": 7524,
      "jupiter": 7525,
      "lus": 7526,
      "inches": 7527,
      "ongoing": 7528,
      "alab": 7529,
      "dial": 7530,
      "lore": 7531,
      "poets": 7532,
      "legally": 7533,
      "fisher": 7534,
      "stanley": 7535,
      "malaysia": 7536,
      "simultaneously": 7537,
      "orn": 7538,
      "ressing": 7539,
      "disorders": 7540,
      "bry": 7541,
      "struck": 7542,
      "operators": 7543,
      "luck": 7544,
      "stores": 7545,
      "symbolic": 7546,
      "adoption": 7547,
      "participate": 7548,
      "liverpool": 7549,
      "substanti": 7550,
      "palestine": 7551,
      "episcop": 7552,
      "neighborhood": 7553,
      "vakia": 7554,
      "jab": 7555,
      "mits": 7556,
      "deem": 7557,
      "wider": 7558,
      "compare": 7559,
      "prefix": 7560,
      "commem": 7561,
      "oscar": 7562,
      "barry": 7563,
      "gaul": 7564,
      "static": 7565,
      "scots": 7566,
      "fallen": 7567,
      "performances": 7568,
      "provinci": 7569,
      "bosnia": 7570,
      "attracted": 7571,
      "minerals": 7572,
      "kash": 7573,
      "oft": 7574,
      "beam": 7575,
      "forcing": 7576,
      "desired": 7577,
      "romance": 7578,
      "defining": 7579,
      "remainder": 7580,
      "conservation": 7581,
      "aimed": 7582,
      "exercise": 7583,
      "sophist": 7584,
      "dall": 7585,
      "dart": 7586,
      "xy": 7587,
      "replic": 7588,
      "entity": 7589,
      "dogs": 7590,
      "gandhi": 7591,
      "phoenix": 7592,
      "kosovo": 7593,
      "vacuum": 7594,
      "cree": 7595,
      "kant": 7596,
      "reviews": 7597,
      "rium": 7598,
      "marie": 7599,
      "subset": 7600,
      "indirect": 7601,
      "hammer": 7602,
      "studios": 7603,
      "acceptance": 7604,
      "hunter": 7605,
      "croatia": 7606,
      "zar": 7607,
      "bever": 7608,
      "verbs": 7609,
      "embar": 7610,
      "faction": 7611,
      "drama": 7612,
      "baltimore": 7613,
      "employees": 7614,
      "lieuten": 7615,
      "legislature": 7616,
      "mutual": 7617,
      "extensively": 7618,
      "expendit": 7619,
      "iated": 7620,
      "tically": 7621,
      "acknowled": 7622,
      "worthy": 7623,
      "sheet": 7624,
      "arabia": 7625,
      "cattle": 7626,
      "mig": 7627,
      "anthem": 7628,
      "rifle": 7629,
      "shr": 7630,
      "trivia": 7631,
      "casual": 7632,
      "homes": 7633,
      "painted": 7634,
      "agencies": 7635,
      "rio": 7636,
      "mini": 7637,
      "courses": 7638,
      "bullet": 7639,
      "nickname": 7640,
      "enh": 7641,
      "unemployment": 7642,
      "resigned": 7643,
      "flam": 7644,
      "fron": 7645,
      "ieee": 7646,
      "europeans": 7647,
      "decay": 7648,
      "luxem": 7649,
      "jury": 7650,
      "mals": 7651,
      "tang": 7652,
      "arose": 7653,
      "vibr": 7654,
      "coined": 7655,
      "timeline": 7656,
      "clothing": 7657,
      "stood": 7658,
      "narrative": 7659,
      "taste": 7660,
      "weekly": 7661,
      "derivative": 7662,
      "aj": 7663,
      "kis": 7664,
      "sap": 7665,
      "tables": 7666,
      "ancing": 7667,
      "whel": 7668,
      "monroe": 7669,
      "fru": 7670,
      "approaches": 7671,
      "settlers": 7672,
      "aaron": 7673,
      "enormous": 7674,
      "imposed": 7675,
      "embra": 7676,
      "diary": 7677,
      "serbia": 7678,
      "trap": 7679,
      "patron": 7680,
      "lasted": 7681,
      "kernel": 7682,
      "broadway": 7683,
      "offering": 7684,
      "backs": 7685,
      "alia": 7686,
      "abund": 7687,
      "manual": 7688,
      "pling": 7689,
      "acceptable": 7690,
      "cutting": 7691,
      "addresses": 7692,
      "sharing": 7693,
      "drinking": 7694,
      "alt": 7695,
      "terior": 7696,
      "nationalist": 7697,
      "expon": 7698,
      "coverage": 7699,
      "benz": 7700,
      "toronto": 7701,
      "rust": 7702,
      "isations": 7703,
      "syd": 7704,
      "ensus": 7705,
      "requiring": 7706,
      "masters": 7707,
      "ecu": 7708,
      "entering": 7709,
      "studying": 7710,
      "priests": 7711,
      "automatically": 7712,
      "cay": 7713,
      "hms": 7714,
      "inau": 7715,
      "convers": 7716,
      "agle": 7717,
      "therine": 7718,
      "manga": 7719,
      "aft": 7720,
      "geneva": 7721,
      "trains": 7722,
      "thanol": 7723,
      "communists": 7724,
      "facing": 7725,
      "bulk": 7726,
      "arguably": 7727,
      "salvador": 7728,
      "tward": 7729,
      "programme": 7730,
      "wilhelm": 7731,
      "nationally": 7732,
      "boxing": 7733,
      "argues": 7734,
      "dolph": 7735,
      "voyage": 7736,
      "paintings": 7737,
      "edict": 7738,
      "outs": 7739,
      "brick": 7740,
      "untary": 7741,
      "consensus": 7742,
      "fragment": 7743,
      "besides": 7744,
      "immune": 7745,
      "conventions": 7746,
      "billy": 7747,
      "injury": 7748,
      "errors": 7749,
      "gom": 7750,
      "rous": 7751,
      "yards": 7752,
      "encing": 7753,
      "lean": 7754,
      "bytes": 7755,
      "feast": 7756,
      "ritual": 7757,
      "plains": 7758,
      "generations": 7759,
      "voters": 7760,
      "kingdoms": 7761,
      "shares": 7762,
      "compiler": 7763,
      "gluco": 7764,
      "tick": 7765,
      "lap": 7766,
      "dust": 7767,
      "synon": 7768,
      "cambo": 7769,
      "clos": 7770,
      "ashes": 7771,
      "receives": 7772,
      "homer": 7773,
      "brazilian": 7774,
      "bam": 7775,
      "fts": 7776,
      "rfc": 7777,
      "onds": 7778,
      "stack": 7779,
      "ighters": 7780,
      "haust": 7781,
      "larry": 7782,
      "observer": 7783,
      "baron": 7784,
      "slavic": 7785,
      "interpretations": 7786,
      "revival": 7787,
      "exposure": 7788,
      "fold": 7789,
      "mast": 7790,
      "iner": 7791,
      "alter": 7792,
      "metres": 7793,
      "natives": 7794,
      "passion": 7795,
      "liberalism": 7796,
      "saxon": 7797,
      "shooting": 7798,
      "administered": 7799,
      "ascii": 7800,
      "eternal": 7801,
      "gnostic": 7802,
      "jen": 7803,
      "ello": 7804,
      "elite": 7805,
      "tea": 7806,
      "memo": 7807,
      "mines": 7808,
      "complement": 7809,
      "sequences": 7810,
      "violin": 7811,
      "happen": 7812,
      "austin": 7813,
      "ffe": 7814,
      "segment": 7815,
      "ulu": 7816,
      "illum": 7817,
      "coron": 7818,
      "lasting": 7819,
      "gray": 7820,
      "argon": 7821,
      "diego": 7822,
      "championships": 7823,
      "exploration": 7824,
      "procedures": 7825,
      "autonomous": 7826,
      "clinical": 7827,
      "colombia": 7828,
      "aq": 7829,
      "tum": 7830,
      "comments": 7831,
      "comfort": 7832,
      "rent": 7833,
      "elevation": 7834,
      "overwhel": 7835,
      "subsi": 7836,
      "cert": 7837,
      "funeral": 7838,
      "tendency": 7839,
      "momentum": 7840,
      "lithuanian": 7841,
      "semitic": 7842,
      "edinburgh": 7843,
      "etic": 7844,
      "acces": 7845,
      "carn": 7846,
      "alongside": 7847,
      "maryland": 7848,
      "guardian": 7849,
      "installed": 7850,
      "hin": 7851,
      "enburg": 7852,
      "sts": 7853,
      "imony": 7854,
      "illery": 7855,
      "tract": 7856,
      "underlying": 7857,
      "mik": 7858,
      "swing": 7859,
      "porter": 7860,
      "bills": 7861,
      "geographical": 7862,
      "albania": 7863,
      "schedule": 7864,
      "mbox": 7865,
      "enhan": 7866,
      "edu": 7867,
      "terrain": 7868,
      "formats": 7869,
      "nationality": 7870,
      "governed": 7871,
      "trek": 7872,
      "considering": 7873,
      "organism": 7874,
      "stronger": 7875,
      "costa": 7876,
      "truly": 7877,
      "genetics": 7878,
      "dimensions": 7879,
      "mammals": 7880,
      "revenue": 7881,
      "merchant": 7882,
      "infection": 7883,
      "inspiration": 7884,
      "kap": 7885,
      "sas": 7886,
      "locom": 7887,
      "persu": 7888,
      "coo": 7889,
      "borne": 7890,
      "trium": 7891,
      "breath": 7892,
      "latest": 7893,
      "kara": 7894,
      "atlas": 7895,
      "tasks": 7896,
      "abolished": 7897,
      "manifest": 7898,
      "adaptation": 7899,
      "physiology": 7900,
      "eru": 7901,
      "arama": 7902,
      "trinity": 7903,
      "bohem": 7904,
      "creates": 7905,
      "norse": 7906,
      "productive": 7907,
      "helium": 7908,
      "nett": 7909,
      "juan": 7910,
      "princip": 7911,
      "digit": 7912,
      "businesses": 7913,
      "bombing": 7914,
      "slang": 7915,
      "governors": 7916,
      "assistant": 7917,
      "jimmy": 7918,
      "promised": 7919,
      "ucky": 7920,
      "lieutenant": 7921,
      "bones": 7922,
      "ogue": 7923,
      "sri": 7924,
      "encoding": 7925,
      "uncle": 7926,
      "prose": 7927,
      "exhaust": 7928,
      "resort": 7929,
      "ido": 7930,
      "compens": 7931,
      "engers": 7932,
      "flour": 7933,
      "hoover": 7934,
      "troll": 7935,
      "activist": 7936,
      "publisher": 7937,
      "detect": 7938,
      "hypothe": 7939,
      "python": 7940,
      "locomot": 7941,
      "dn": 7942,
      "zig": 7943,
      "theas": 7944,
      "writes": 7945,
      "henri": 7946,
      "wearing": 7947,
      "ceremon": 7948,
      "thood": 7949,
      "cn": 7950,
      "eco": 7951,
      "andr": 7952,
      "collins": 7953,
      "britann": 7954,
      "mickey": 7955,
      "identification": 7956,
      "facult": 7957,
      "requirement": 7958,
      "occasions": 7959,
      "itis": 7960,
      "eros": 7961,
      "imir": 7962,
      "embed": 7963,
      "strand": 7964,
      "gore": 7965,
      "ported": 7966,
      "trials": 7967,
      "distant": 7968,
      "naming": 7969,
      "florence": 7970,
      "supplies": 7971,
      "libya": 7972,
      "electromagnetic": 7973,
      "ecclesi": 7974,
      "unfortunately": 7975,
      "metaphys": 7976,
      "bip": 7977,
      "pam": 7978,
      "vy": 7979,
      "wag": 7980,
      "revers": 7981,
      "replacing": 7982,
      "thermo": 7983,
      "regulations": 7984,
      "politically": 7985,
      "harbour": 7986,
      "franz": 7987,
      "swim": 7988,
      "consent": 7989,
      "psi": 7990,
      "restri": 7991,
      "matches": 7992,
      "applies": 7993,
      "farming": 7994,
      "mechanisms": 7995,
      "susp": 7996,
      "sacram": 7997,
      "opposing": 7998,
      "repeatedly": 7999,
      "insulin": 8000,
      "abulary": 8001,
      "sau": 8002,
      "unlikely": 8003,
      "ride": 8004,
      "excess": 8005,
      "appreci": 8006,
      "acou": 8007,
      "gos": 8008,
      "borg": 8009,
      "morris": 8010,
      "bsd": 8011,
      "battery": 8012,
      "centered": 8013,
      "hitch": 8014,
      "silent": 8015,
      "tied": 8016,
      "nominated": 8017,
      "diamonds": 8018,
      "tactics": 8019,
      "consonants": 8020,
      "bors": 8021,
      "bold": 8022,
      "ske": 8023,
      "saudi": 8024,
      "vital": 8025,
      "encompass": 8026,
      "bee": 8027,
      "impression": 8028,
      "constra": 8029,
      "spending": 8030,
      "hub": 8031,
      "consul": 8032,
      "seriously": 8033,
      "purely": 8034,
      "jonathan": 8035,
      "aluminium": 8036,
      "kentucky": 8037,
      "pioneer": 8038,
      "abortion": 8039,
      "intr": 8040,
      "recru": 8041,
      "atem": 8042,
      "alf": 8043,
      "entities": 8044,
      "propri": 8045,
      "aphor": 8046,
      "minim": 8047,
      "warming": 8048,
      "hoo": 8049,
      "missing": 8050,
      "liberals": 8051,
      "facilit": 8052,
      "manuel": 8053,
      "chemicals": 8054,
      "visitors": 8055,
      "hearing": 8056,
      "recommended": 8057,
      "hierarchy": 8058,
      "bund": 8059,
      "ora": 8060,
      "arin": 8061,
      "lav": 8062,
      "estimate": 8063,
      "odd": 8064,
      "visional": 8065,
      "legs": 8066,
      "economies": 8067,
      "issions": 8068,
      "hosts": 8069,
      "ussr": 8070,
      "bant": 8071,
      "bard": 8072,
      "esa": 8073,
      "kees": 8074,
      "kevin": 8075,
      "creatures": 8076,
      "transmitted": 8077,
      "developers": 8078,
      "aceae": 8079,
      "striking": 8080,
      "periodic": 8081,
      "ranging": 8082,
      "reasoning": 8083,
      "demands": 8084,
      "philippines": 8085,
      "sanskrit": 8086,
      "sydney": 8087,
      "aramaic": 8088,
      "opens": 8089,
      "soc": 8090,
      "ferdin": 8091,
      "poles": 8092,
      "joining": 8093,
      "mild": 8094,
      "chiat": 8095,
      "teachers": 8096,
      "consisted": 8097,
      "spoke": 8098,
      "cocaine": 8099,
      "fon": 8100,
      "gis": 8101,
      "item": 8102,
      "leibn": 8103,
      "illy": 8104,
      "modu": 8105,
      "rite": 8106,
      "fern": 8107,
      "cargo": 8108,
      "statesman": 8109,
      "criteria": 8110,
      "invaded": 8111,
      "feeling": 8112,
      "homosexuality": 8113,
      "ferdinand": 8114,
      "aside": 8115,
      "entre": 8116,
      "otro": 8117,
      "derives": 8118,
      "attor": 8119,
      "evening": 8120,
      "damaged": 8121,
      "integers": 8122,
      "reaches": 8123,
      "psychiat": 8124,
      "decide": 8125,
      "witt": 8126,
      "anthropology": 8127,
      "etymology": 8128,
      "egg": 8129,
      "plo": 8130,
      "enance": 8131,
      "unofficial": 8132,
      "loren": 8133,
      "filter": 8134,
      "godzilla": 8135,
      "circular": 8136,
      "cheese": 8137,
      "amendment": 8138,
      "provincial": 8139,
      "theastern": 8140,
      "jump": 8141,
      "mature": 8142,
      "esy": 8143,
      "seed": 8144,
      "chell": 8145,
      "amino": 8146,
      "confer": 8147,
      "shots": 8148,
      "canter": 8149,
      "printer": 8150,
      "elling": 8151,
      "warner": 8152,
      "scr": 8153,
      "anny": 8154,
      "communion": 8155,
      "freely": 8156,
      "speeds": 8157,
      "survival": 8158,
      "conflicts": 8159,
      "bearing": 8160,
      "gravitational": 8161,
      "kah": 8162,
      "yam": 8163,
      "oro": 8164,
      "sians": 8165,
      "modes": 8166,
      "abroad": 8167,
      "posit": 8168,
      "arius": 8169,
      "unified": 8170,
      "gio": 8171,
      "cribed": 8172,
      "diesel": 8173,
      "cataly": 8174,
      "gaining": 8175,
      "explosion": 8176,
      "losses": 8177,
      "advocates": 8178,
      "recommend": 8179,
      "shakespe": 8180,
      "leibniz": 8181,
      "till": 8182,
      "oni": 8183,
      "divide": 8184,
      "ogen": 8185,
      "ipa": 8186,
      "jos": 8187,
      "defines": 8188,
      "pix": 8189,
      "massacre": 8190,
      "novelist": 8191,
      "carries": 8192,
      "fifty": 8193,
      "crossing": 8194,
      "glucose": 8195,
      "kay": 8196,
      "raven": 8197,
      "plague": 8198,
      "newer": 8199,
      "tennis": 8200,
      "eugen": 8201,
      "microw": 8202,
      "dancing": 8203,
      "nouns": 8204,
      "gger": 8205,
      "tiny": 8206,
      "imply": 8207,
      "submarine": 8208,
      "realm": 8209,
      "socialism": 8210,
      "judah": 8211,
      "loyd": 8212,
      "wiscons": 8213,
      "censor": 8214,
      "julius": 8215,
      "aviation": 8216,
      "canonical": 8217,
      "manufacturer": 8218,
      "rations": 8219,
      "innat": 8220,
      "diameter": 8221,
      "estonia": 8222,
      "frames": 8223,
      "supplement": 8224,
      "astronaut": 8225,
      "illustrated": 8226,
      "galileo": 8227,
      "arbitrary": 8228,
      "module": 8229,
      "shakespeare": 8230,
      "wisconsin": 8231,
      "qur": 8232,
      "sadd": 8233,
      "tissue": 8234,
      "altit": 8235,
      "confu": 8236,
      "enders": 8237,
      "noise": 8238,
      "doctors": 8239,
      "memor": 8240,
      "thorough": 8241,
      "circles": 8242,
      "companion": 8243,
      "reportedly": 8244,
      "teles": 8245,
      "amazon": 8246,
      "propaganda": 8247,
      "remarkable": 8248,
      "adequate": 8249,
      "cinc": 8250,
      "zap": 8251,
      "utical": 8252,
      "clown": 8253,
      "uding": 8254,
      "brut": 8255,
      "tension": 8256,
      "numbered": 8257,
      "nietz": 8258,
      "quotes": 8259,
      "targets": 8260,
      "astronomical": 8261,
      "oes": 8262,
      "revision": 8263,
      "ento": 8264,
      "unsuccessful": 8265,
      "emen": 8266,
      "hey": 8267,
      "artillery": 8268,
      "hail": 8269,
      "fring": 8270,
      "grammat": 8271,
      "operates": 8272,
      "luci": 8273,
      "choos": 8274,
      "adopt": 8275,
      "evangelical": 8276,
      "belarus": 8277,
      "hud": 8278,
      "lb": 8279,
      "qa": 8280,
      "enco": 8281,
      "vet": 8282,
      "conan": 8283,
      "proli": 8284,
      "tennes": 8285,
      "basin": 8286,
      "equil": 8287,
      "hamas": 8288,
      "practition": 8289,
      "recognised": 8290,
      "buddha": 8291,
      "canton": 8292,
      "orientation": 8293,
      "sloven": 8294,
      "hindi": 8295,
      "vlad": 8296,
      "lete": 8297,
      "elf": 8298,
      "withdra": 8299,
      "fuller": 8300,
      "solomon": 8301,
      "arabs": 8302,
      "foods": 8303,
      "frontier": 8304,
      "explosive": 8305,
      "push": 8306,
      "stanford": 8307,
      "bridges": 8308,
      "cincinnat": 8309,
      "withdrawal": 8310,
      "golf": 8311,
      "md": 8312,
      "alice": 8313,
      "siah": 8314,
      "estone": 8315,
      "ferment": 8316,
      "serbian": 8317,
      "parks": 8318,
      "popul": 8319,
      "likewise": 8320,
      "runner": 8321,
      "maintaining": 8322,
      "inherit": 8323,
      "trend": 8324,
      "stroke": 8325,
      "confidence": 8326,
      "yugoslavia": 8327,
      "proponents": 8328,
      "luxembourg": 8329,
      "ea": 8330,
      "atra": 8331,
      "discrete": 8332,
      "dock": 8333,
      "harbor": 8334,
      "occurring": 8335,
      "actively": 8336,
      "meetings": 8337,
      "vocabulary": 8338,
      "saved": 8339,
      "rabbi": 8340,
      "bacter": 8341,
      "nietzsche": 8342,
      "iveness": 8343,
      "inert": 8344,
      "consolid": 8345,
      "shu": 8346,
      "regulation": 8347,
      "stewart": 8348,
      "vessels": 8349,
      "graham": 8350,
      "songwriter": 8351,
      "jerry": 8352,
      "chapters": 8353,
      "wisdom": 8354,
      "villages": 8355,
      "emotional": 8356,
      "predominantly": 8357,
      "eritre": 8358,
      "tennessee": 8359,
      "kine": 8360,
      "thro": 8361,
      "uri": 8362,
      "uras": 8363,
      "clam": 8364,
      "compress": 8365,
      "ibal": 8366,
      "syntax": 8367,
      "kyo": 8368,
      "assumption": 8369,
      "anniversary": 8370,
      "guilty": 8371,
      "retrieved": 8372,
      "ife": 8373,
      "kry": 8374,
      "oven": 8375,
      "oreg": 8376,
      "wim": 8377,
      "arians": 8378,
      "semic": 8379,
      "deals": 8380,
      "brass": 8381,
      "trace": 8382,
      "camero": 8383,
      "practiced": 8384,
      "revolt": 8385,
      "macau": 8386,
      "explains": 8387,
      "shield": 8388,
      "closest": 8389,
      "ahead": 8390,
      "bage": 8391,
      "zu": 8392,
      "defect": 8393,
      "adder": 8394,
      "waste": 8395,
      "loan": 8396,
      "permission": 8397,
      "generic": 8398,
      "populated": 8399,
      "transit": 8400,
      "signature": 8401,
      "dense": 8402,
      "catholicism": 8403,
      "mccar": 8404,
      "istol": 8405,
      "archaeological": 8406,
      "scored": 8407,
      "ecuador": 8408,
      "asking": 8409,
      "andy": 8410,
      "stam": 8411,
      "displayed": 8412,
      "bras": 8413,
      "associate": 8414,
      "potentially": 8415,
      "holders": 8416,
      "solely": 8417,
      "strengthen": 8418,
      "hughes": 8419,
      "sacrifice": 8420,
      "trick": 8421,
      "governmental": 8422,
      "wavel": 8423,
      "invited": 8424,
      "culmin": 8425,
      "walker": 8426,
      "graphical": 8427,
      "evalu": 8428,
      "hemis": 8429,
      "phrases": 8430,
      "tournament": 8431,
      "terry": 8432,
      "elin": 8433,
      "gear": 8434,
      "guatem": 8435,
      "intu": 8436,
      "technically": 8437,
      "jug": 8438,
      "ukraine": 8439,
      "identi": 8440,
      "connectic": 8441,
      "masses": 8442,
      "councils": 8443,
      "maintenance": 8444,
      "immort": 8445,
      "birthday": 8446,
      "cdot": 8447,
      "equipped": 8448,
      "cluster": 8449,
      "desktop": 8450,
      "cincinnati": 8451,
      "connecticut": 8452,
      "bust": 8453,
      "dag": 8454,
      "dialogue": 8455,
      "updated": 8456,
      "judgment": 8457,
      "automobile": 8458,
      "watson": 8459,
      "cotton": 8460,
      "adults": 8461,
      "omorphic": 8462,
      "constellation": 8463,
      "canterbury": 8464,
      "nm": 8465,
      "implic": 8466,
      "convert": 8467,
      "ulsion": 8468,
      "holder": 8469,
      "successive": 8470,
      "radar": 8471,
      "globe": 8472,
      "nonetheless": 8473,
      "lutheran": 8474,
      "proportional": 8475,
      "bau": 8476,
      "nun": 8477,
      "wage": 8478,
      "forty": 8479,
      "spur": 8480,
      "creature": 8481,
      "relating": 8482,
      "bias": 8483,
      "primitive": 8484,
      "restoration": 8485,
      "compiled": 8486,
      "combust": 8487,
      "surprising": 8488,
      "contradict": 8489,
      "junior": 8490,
      "restrial": 8491,
      "sr": 8492,
      "oning": 8493,
      "resi": 8494,
      "antio": 8495,
      "bie": 8496,
      "examination": 8497,
      "foundations": 8498,
      "tested": 8499,
      "civilizations": 8500,
      "pleasure": 8501,
      "fighters": 8502,
      "gap": 8503,
      "gill": 8504,
      "kb": 8505,
      "aspir": 8506,
      "permit": 8507,
      "tril": 8508,
      "boats": 8509,
      "extends": 8510,
      "radi": 8511,
      "salvation": 8512,
      "deemed": 8513,
      "tie": 8514,
      "icus": 8515,
      "consecut": 8516,
      "bitter": 8517,
      "tooth": 8518,
      "experts": 8519,
      "floating": 8520,
      "fying": 8521,
      "yiel": 8522,
      "insubstantial": 8523,
      "ading": 8524,
      "portions": 8525,
      "colm": 8526,
      "referend": 8527,
      "wealthy": 8528,
      "attributes": 8529,
      "geometric": 8530,
      "atheism": 8531,
      "claudius": 8532,
      "orbital": 8533,
      "consecutive": 8534,
      "mhz": 8535,
      "heir": 8536,
      "acular": 8537,
      "shaw": 8538,
      "pheric": 8539,
      "mega": 8540,
      "genome": 8541,
      "producers": 8542,
      "surgery": 8543,
      "kills": 8544,
      "corporations": 8545,
      "layers": 8546,
      "favorite": 8547,
      "deputy": 8548,
      "configuration": 8549,
      "episcopal": 8550,
      "mccarthy": 8551,
      "dimin": 8552,
      "fitz": 8553,
      "rah": 8554,
      "eli": 8555,
      "pocket": 8556,
      "haiti": 8557,
      "joke": 8558,
      "announ": 8559,
      "stuart": 8560,
      "cardin": 8561,
      "munich": 8562,
      "elementary": 8563,
      "vocals": 8564,
      "argentine": 8565,
      "scores": 8566,
      "equilib": 8567,
      "jak": 8568,
      "ender": 8569,
      "amar": 8570,
      "mack": 8571,
      "cancel": 8572,
      "plates": 8573,
      "marc": 8574,
      "colog": 8575,
      "ateral": 8576,
      "organisations": 8577,
      "ranks": 8578,
      "fathers": 8579,
      "bankrupt": 8580,
      "opinions": 8581,
      "battleship": 8582,
      "nucleus": 8583,
      "enlighten": 8584,
      "intermediate": 8585,
      "waveleng": 8586,
      "recovered": 8587,
      "seal": 8588,
      "chord": 8589,
      "ambass": 8590,
      "fires": 8591,
      "ours": 8592,
      "americas": 8593,
      "faq": 8594,
      "capabilities": 8595,
      "namely": 8596,
      "mith": 8597,
      "commands": 8598,
      "confederation": 8599,
      "allegedly": 8600,
      "precisely": 8601,
      "kazakhstan": 8602,
      "retirement": 8603,
      "iq": 8604,
      "kary": 8605,
      "pend": 8606,
      "reck": 8607,
      "nineteenth": 8608,
      "rage": 8609,
      "elvis": 8610,
      "cide": 8611,
      "productions": 8612,
      "smallest": 8613,
      "directions": 8614,
      "onymous": 8615,
      "accessed": 8616,
      "bolshe": 8617,
      "modul": 8618,
      "publishers": 8619,
      "deeply": 8620,
      "circumcision": 8621,
      "autonomy": 8622,
      "vulner": 8623,
      "correspondence": 8624,
      "earthquake": 8625,
      "oregon": 8626,
      "mtv": 8627,
      "pound": 8628,
      "enne": 8629,
      "icing": 8630,
      "sted": 8631,
      "iva": 8632,
      "milton": 8633,
      "legends": 8634,
      "tongue": 8635,
      "dawn": 8636,
      "lighting": 8637,
      "ashi": 8638,
      "oxid": 8639,
      "farmers": 8640,
      "kai": 8641,
      "availability": 8642,
      "corresponds": 8643,
      "albanian": 8644,
      "hagen": 8645,
      "prevail": 8646,
      "bavaria": 8647,
      "pharma": 8648,
      "convinced": 8649,
      "covenant": 8650,
      "landscape": 8651,
      "gross": 8652,
      "tended": 8653,
      "uct": 8654,
      "inverse": 8655,
      "reformation": 8656,
      "asim": 8657,
      "stag": 8658,
      "amy": 8659,
      "console": 8660,
      "trail": 8661,
      "ologically": 8662,
      "realized": 8663,
      "wesley": 8664,
      "onym": 8665,
      "facility": 8666,
      "specification": 8667,
      "carriers": 8668,
      "gotten": 8669,
      "resolved": 8670,
      "registered": 8671,
      "antonio": 8672,
      "believes": 8673,
      "dh": 8674,
      "kol": 8675,
      "othy": 8676,
      "wool": 8677,
      "rely": 8678,
      "seman": 8679,
      "whale": 8680,
      "laus": 8681,
      "counted": 8682,
      "standardi": 8683,
      "penet": 8684,
      "bangl": 8685,
      "categor": 8686,
      "accessible": 8687,
      "morgan": 8688,
      "pper": 8689,
      "spher": 8690,
      "chry": 8691,
      "ela": 8692,
      "cannon": 8693,
      "ivan": 8694,
      "tense": 8695,
      "weigh": 8696,
      "operational": 8697,
      "citing": 8698,
      "maxwell": 8699,
      "das": 8700,
      "charts": 8701,
      "olith": 8702,
      "prot": 8703,
      "irc": 8704,
      "quit": 8705,
      "fications": 8706,
      "ignor": 8707,
      "versa": 8708,
      "banking": 8709,
      "suffix": 8710,
      "compete": 8711,
      "expressions": 8712,
      "flowers": 8713,
      "hilbert": 8714,
      "lebanese": 8715,
      "rhine": 8716,
      "scheduled": 8717,
      "enlightenment": 8718,
      "inum": 8719,
      "orous": 8720,
      "chol": 8721,
      "igo": 8722,
      "ultra": 8723,
      "thereafter": 8724,
      "joan": 8725,
      "relatives": 8726,
      "westminster": 8727,
      "railways": 8728,
      "contribution": 8729,
      "monarchs": 8730,
      "pascal": 8731,
      "alumni": 8732,
      "denominations": 8733,
      "jamaica": 8734,
      "tent": 8735,
      "embas": 8736,
      "devast": 8737,
      "frequencies": 8738,
      "madrid": 8739,
      "princeton": 8740,
      "duncan": 8741,
      "extinction": 8742,
      "fascist": 8743,
      "wedding": 8744,
      "avenue": 8745,
      "ludwig": 8746,
      "dallas": 8747,
      "dre": 8748,
      "zim": 8749,
      "altered": 8750,
      "icism": 8751,
      "coer": 8752,
      "contents": 8753,
      "descriptions": 8754,
      "literacy": 8755,
      "batter": 8756,
      "reserves": 8757,
      "chaos": 8758,
      "jurisdict": 8759,
      "alabama": 8760,
      "itudes": 8761,
      "chus": 8762,
      "este": 8763,
      "hispan": 8764,
      "afl": 8765,
      "engage": 8766,
      "finish": 8767,
      "fris": 8768,
      "malcolm": 8769,
      "famously": 8770,
      "reasonable": 8771,
      "campaigns": 8772,
      "improvements": 8773,
      "gift": 8774,
      "blog": 8775,
      "thi": 8776,
      "deen": 8777,
      "grim": 8778,
      "ups": 8779,
      "carth": 8780,
      "factbook": 8781,
      "everyday": 8782,
      "bench": 8783,
      "connecting": 8784,
      "boards": 8785,
      "hosted": 8786,
      "guided": 8787,
      "nad": 8788,
      "anor": 8789,
      "enig": 8790,
      "editing": 8791,
      "rog": 8792,
      "amster": 8793,
      "venez": 8794,
      "speculation": 8795,
      "appointment": 8796,
      "loaded": 8797,
      "plato": 8798,
      "astronomer": 8799,
      "rhythm": 8800,
      "amsterdam": 8801,
      "gb": 8802,
      "lil": 8803,
      "irregular": 8804,
      "lib": 8805,
      "scales": 8806,
      "claude": 8807,
      "breaks": 8808,
      "romanian": 8809,
      "mascul": 8810,
      "wooden": 8811,
      "autobiography": 8812,
      "anarchist": 8813,
      "plateau": 8814,
      "stayed": 8815,
      "photographs": 8816,
      "volcanic": 8817,
      "chromos": 8818,
      "warrior": 8819,
      "elaborate": 8820,
      "nodes": 8821,
      "leans": 8822,
      "chu": 8823,
      "extr": 8824,
      "cann": 8825,
      "interval": 8826,
      "harma": 8827,
      "bars": 8828,
      "burial": 8829,
      "competing": 8830,
      "conservatives": 8831,
      "calculated": 8832,
      "symphony": 8833,
      "inherited": 8834,
      "uprising": 8835,
      "sustain": 8836,
      "lambda": 8837,
      "bine": 8838,
      "vest": 8839,
      "inuit": 8840,
      "lined": 8841,
      "ideology": 8842,
      "backed": 8843,
      "circa": 8844,
      "voiced": 8845,
      "rainfall": 8846,
      "demanded": 8847,
      "preserve": 8848,
      "browser": 8849,
      "completion": 8850,
      "knock": 8851,
      "moldova": 8852,
      "eisen": 8853,
      "sz": 8854,
      "afford": 8855,
      "omega": 8856,
      "precision": 8857,
      "ipel": 8858,
      "displays": 8859,
      "attitude": 8860,
      "unification": 8861,
      "catherine": 8862,
      "sheep": 8863,
      "advances": 8864,
      "martyr": 8865,
      "measurements": 8866,
      "terrorism": 8867,
      "scandal": 8868,
      "jefferson": 8869,
      "entrance": 8870,
      "ecclesiast": 8871,
      "dl": 8872,
      "dwell": 8873,
      "eighth": 8874,
      "stating": 8875,
      "ghana": 8876,
      "monk": 8877,
      "enson": 8878,
      "enses": 8879,
      "harold": 8880,
      "burned": 8881,
      "cription": 8882,
      "holland": 8883,
      "talmud": 8884,
      "catalan": 8885,
      "greenland": 8886,
      "bott": 8887,
      "computational": 8888,
      "package": 8889,
      "cornwall": 8890,
      "croatian": 8891,
      "accomplished": 8892,
      "nicholas": 8893,
      "hp": 8894,
      "nint": 8895,
      "pact": 8896,
      "rant": 8897,
      "rons": 8898,
      "vous": 8899,
      "robin": 8900,
      "poe": 8901,
      "foster": 8902,
      "oswald": 8903,
      "annually": 8904,
      "zeus": 8905,
      "chocol": 8906,
      "documented": 8907,
      "nazis": 8908,
      "dice": 8909,
      "ffer": 8910,
      "rs": 8911,
      "retail": 8912,
      "quiet": 8913,
      "earn": 8914,
      "pler": 8915,
      "prestig": 8916,
      "reless": 8917,
      "metry": 8918,
      "signing": 8919,
      "technological": 8920,
      "samples": 8921,
      "gases": 8922,
      "calculations": 8923,
      "supposedly": 8924,
      "enterprise": 8925,
      "enabled": 8926,
      "dubbed": 8927,
      "rator": 8928,
      "zion": 8929,
      "enet": 8930,
      "provid": 8931,
      "neil": 8932,
      "trum": 8933,
      "ameters": 8934,
      "mari": 8935,
      "occurren": 8936,
      "eugene": 8937,
      "voices": 8938,
      "georg": 8939,
      "fifteen": 8940,
      "prussian": 8941,
      "licensed": 8942,
      "remembered": 8943,
      "cousin": 8944,
      "expenditures": 8945,
      "dow": 8946,
      "dune": 8947,
      "ube": 8948,
      "redi": 8949,
      "default": 8950,
      "ceme": 8951,
      "otech": 8952,
      "iry": 8953,
      "hegel": 8954,
      "ett": 8955,
      "persia": 8956,
      "spend": 8957,
      "weber": 8958,
      "archipel": 8959,
      "miami": 8960,
      "gae": 8961,
      "icode": 8962,
      "cott": 8963,
      "hurric": 8964,
      "advocate": 8965,
      "initiated": 8966,
      "fabric": 8967,
      "pension": 8968,
      "horizontal": 8969,
      "equilibrium": 8970,
      "cemetery": 8971,
      "witch": 8972,
      "infra": 8973,
      "adolf": 8974,
      "pets": 8975,
      "cium": 8976,
      "pod": 8977,
      "tribal": 8978,
      "surfaces": 8979,
      "dying": 8980,
      "dominican": 8981,
      "capitalist": 8982,
      "crusade": 8983,
      "predicted": 8984,
      "oulder": 8985,
      "forbidden": 8986,
      "attorney": 8987,
      "isles": 8988,
      "unicode": 8989,
      "manhatt": 8990,
      "collo": 8991,
      "atty": 8992,
      "metaphor": 8993,
      "brooks": 8994,
      "ronald": 8995,
      "kirk": 8996,
      "reagan": 8997,
      "esian": 8998,
      "andro": 8999,
      "tokyo": 9000,
      "stabil": 9001,
      "maid": 9002,
      "sures": 9003,
      "systematic": 9004,
      "resident": 9005,
      "hinduism": 9006,
      "navigation": 9007,
      "breeding": 9008,
      "preparation": 9009,
      "floppy": 9010,
      "roberts": 9011,
      "jurisdictions": 9012,
      "anticip": 9013,
      "cola": 9014,
      "archives": 9015,
      "transc": 9016,
      "mala": 9017,
      "homepage": 9018,
      "nomial": 9019,
      "dealt": 9020,
      "rendered": 9021,
      "fiscal": 9022,
      "embedded": 9023,
      "microwave": 9024,
      "cameroon": 9025,
      "gut": 9026,
      "nash": 9027,
      "punch": 9028,
      "yale": 9029,
      "incar": 9030,
      "toll": 9031,
      "quart": 9032,
      "ivism": 9033,
      "polis": 9034,
      "basil": 9035,
      "tao": 9036,
      "vessel": 9037,
      "closure": 9038,
      "locally": 9039,
      "physically": 9040,
      "synthetic": 9041,
      "daughters": 9042,
      "comparable": 9043,
      "murdered": 9044,
      "iraqi": 9045,
      "crowd": 9046,
      "differs": 9047,
      "galaxies": 9048,
      "scoring": 9049,
      "totally": 9050,
      "nintendo": 9051,
      "rho": 9052,
      "tier": 9053,
      "emann": 9054,
      "duplic": 9055,
      "ceded": 9056,
      "puer": 9057,
      "transformed": 9058,
      "expelled": 9059,
      "designation": 9060,
      "telecommunications": 9061,
      "hardt": 9062,
      "instances": 9063,
      "environments": 9064,
      "documentation": 9065,
      "occasional": 9066,
      "pilots": 9067,
      "modification": 9068,
      "protocols": 9069,
      "olympics": 9070,
      "manuscripts": 9071,
      "deposits": 9072,
      "elephant": 9073,
      "icate": 9074,
      "sect": 9075,
      "maine": 9076,
      "idal": 9077,
      "spl": 9078,
      "spy": 9079,
      "firing": 9080,
      "observers": 9081,
      "cratic": 9082,
      "distort": 9083,
      "ifications": 9084,
      "passengers": 9085,
      "continuity": 9086,
      "similarities": 9087,
      "profound": 9088,
      "wallace": 9089,
      "satan": 9090,
      "wheat": 9091,
      "democrat": 9092,
      "discussions": 9093,
      "tanks": 9094,
      "marxist": 9095,
      "enforcement": 9096,
      "alberta": 9097,
      "honduras": 9098,
      "suspended": 9099,
      "manhattan": 9100,
      "ika": 9101,
      "oa": 9102,
      "remin": 9103,
      "edgar": 9104,
      "icop": 9105,
      "riding": 9106,
      "guards": 9107,
      "oga": 9108,
      "statute": 9109,
      "critique": 9110,
      "killer": 9111,
      "homo": 9112,
      "suffici": 9113,
      "caliph": 9114,
      "fatal": 9115,
      "dramatically": 9116,
      "qualities": 9117,
      "gentle": 9118,
      "rim": 9119,
      "inex": 9120,
      "urus": 9121,
      "haven": 9122,
      "ips": 9123,
      "josh": 9124,
      "myths": 9125,
      "hubb": 9126,
      "metabol": 9127,
      "lett": 9128,
      "waiting": 9129,
      "assassinated": 9130,
      "clusters": 9131,
      "faculty": 9132,
      "cence": 9133,
      "til": 9134,
      "watt": 9135,
      "itan": 9136,
      "ingredi": 9137,
      "owing": 9138,
      "odys": 9139,
      "illic": 9140,
      "collis": 9141,
      "eller": 9142,
      "extending": 9143,
      "harsh": 9144,
      "latitude": 9145,
      "hamp": 9146,
      "carefully": 9147,
      "semicon": 9148,
      "hemisphere": 9149,
      "kne": 9150,
      "uz": 9151,
      "orleans": 9152,
      "amber": 9153,
      "excessive": 9154,
      "phot": 9155,
      "beria": 9156,
      "centric": 9157,
      "nationalism": 9158,
      "obsc": 9159,
      "litur": 9160,
      "starred": 9161,
      "criticisms": 9162,
      "pushed": 9163,
      "rolls": 9164,
      "angered": 9165,
      "multiplication": 9166,
      "celebration": 9167,
      "pearl": 9168,
      "delivery": 9169,
      "sophisticated": 9170,
      "kk": 9171,
      "zan": 9172,
      "isers": 9173,
      "thermal": 9174,
      "excav": 9175,
      "worm": 9176,
      "nobility": 9177,
      "osto": 9178,
      "hugo": 9179,
      "lawyer": 9180,
      "midi": 9181,
      "battal": 9182,
      "flights": 9183,
      "commissioned": 9184,
      "arkansas": 9185,
      "improvement": 9186,
      "feminist": 9187,
      "nutrit": 9188,
      "prophets": 9189,
      "libertarian": 9190,
      "nitrogen": 9191,
      "hubbard": 9192,
      "ike": 9193,
      "jain": 9194,
      "sives": 9195,
      "confirm": 9196,
      "eighteen": 9197,
      "laugh": 9198,
      "lips": 9199,
      "reson": 9200,
      "interactions": 9201,
      "distances": 9202,
      "morality": 9203,
      "receiver": 9204,
      "treaties": 9205,
      "sung": 9206,
      "polynomial": 9207,
      "descended": 9208,
      "vegetables": 9209,
      "derivatives": 9210,
      "witnesses": 9211,
      "opportun": 9212,
      "combustion": 9213,
      "referendum": 9214,
      "eul": 9215,
      "gps": 9216,
      "jero": 9217,
      "mour": 9218,
      "ando": 9219,
      "imf": 9220,
      "essence": 9221,
      "monks": 9222,
      "monty": 9223,
      "knife": 9224,
      "capability": 9225,
      "miss": 9226,
      "harris": 9227,
      "logarith": 9228,
      "addressed": 9229,
      "weakness": 9230,
      "limitations": 9231,
      "coordinates": 9232,
      "monastery": 9233,
      "bangladesh": 9234,
      "evers": 9235,
      "removing": 9236,
      "ilian": 9237,
      "quin": 9238,
      "reluct": 9239,
      "subur": 9240,
      "schwar": 9241,
      "highland": 9242,
      "bius": 9243,
      "grams": 9244,
      "presentation": 9245,
      "denver": 9246,
      "pyram": 9247,
      "festiv": 9248,
      "machinery": 9249,
      "semitism": 9250,
[...]
